{
  "version": "1.0",
  "truncation": null,
  "padding": null,
  "added_tokens": [
    {
      "id": 0,
      "content": "[PAD]",
      "single_word": false,
      "lstrip": false,
      "rstrip": false,
      "normalized": false,
      "special": true
    },
    {
      "id": 1,
      "content": "[UNK]",
      "single_word": false,
      "lstrip": false,
      "rstrip": false,
      "normalized": false,
      "special": true
    },
    {
      "id": 2,
      "content": "[CLS]",
      "single_word": false,
      "lstrip": false,
      "rstrip": false,
      "normalized": false,
      "special": true
    },
    {
      "id": 3,
      "content": "[SEP]",
      "single_word": false,
      "lstrip": false,
      "rstrip": false,
      "normalized": false,
      "special": true
    },
    {
      "id": 4,
      "content": "[MASK]",
      "single_word": false,
      "lstrip": false,
      "rstrip": false,
      "normalized": false,
      "special": true
    }
  ],
  "normalizer": null,
  "pre_tokenizer": {
    "type": "Whitespace"
  },
  "post_processor": null,
  "decoder": null,
  "model": {
    "type": "BPE",
    "dropout": null,
    "unk_token": "[UNK]",
    "continuing_subword_prefix": null,
    "end_of_word_suffix": null,
    "fuse_unk": false,
    "byte_fallback": false,
    "ignore_merges": false,
    "vocab": {
      "[PAD]": 0,
      "[UNK]": 1,
      "[CLS]": 2,
      "[SEP]": 3,
      "[MASK]": 4,
      "a": 5,
      "b": 6,
      "c": 7,
      "d": 8,
      "e": 9,
      "f": 10,
      "g": 11,
      "h": 12,
      "i": 13,
      "j": 14,
      "k": 15,
      "l": 16,
      "m": 17,
      "n": 18,
      "o": 19,
      "p": 20,
      "q": 21,
      "r": 22,
      "s": 23,
      "t": 24,
      "u": 25,
      "v": 26,
      "w": 27,
      "x": 28,
      "y": 29,
      "z": 30,
      "an": 31,
      "er": 32,
      "in": 33,
      "en": 34,
      "ar": 35,
      "at": 36,
      "as": 37,
      "ang": 38,
      "al": 39,
      "am": 40,
      "ak": 41,
      "ah": 42,
      "em": 43,
      "on": 44,
      "di": 45,
      "un": 46,
      "si": 47,
      "el": 48,
      "or": 49,
      "men": 50,
      "ik": 51,
      "ter": 52,
      "ya": 53,
      "ot": 54,
      "ap": 55,
      "ber": 56,
      "et": 57,
      "es": 58,
      "la": 59,
      "ma": 60,
      "ing": 61,
      "us": 62,
      "kan": 63,
      "li": 64,
      "per": 65,
      "ga": 66,
      "it": 67,
      "bang": 68,
      "ung": 69,
      "om": 70,
      "asi": 71,
      "ur": 72,
      "pr": 73,
      "is": 74,
      "de": 75,
      "ba": 76,
      "ja": 77,
      "gam": 78,
      "se": 79,
      "ut": 80,
      "nya": 81,
      "main": 82,
      "ti": 83,
      "re": 84,
      "ok": 85,
      "pen": 86,
      "mem": 87,
      "wa": 88,
      "ke": 89,
      "ul": 90,
      "ban": 91,
      "ol": 92,
      "il": 93,
      "uk": 94,
      "st": 95,
      "lay": 96,
      "ri": 97,
      "da": 98,
      "lot": 99,
      "um": 100,
      "game": 101,
      "le": 102,
      "ra": 103,
      "ari": 104,
      "bi": 105,
      "ind": 106,
      "ek": 107,
      "po": 108,
      "gi": 109,
      "tu": 110,
      "slot": 111,
      "play": 112,
      "akan": 113,
      "ati": 114,
      "up": 115,
      "wk": 116,
      "ama": 117,
      "sel": 118,
      "id": 119,
      "uh": 120,
      "ch": 121,
      "ud": 122,
      "lo": 123,
      "bar": 124,
      "sa": 125,
      "ta": 126,
      "sp": 127,
      "ir": 128,
      "lin": 129,
      "meng": 130,
      "tr": 131,
      "ce": 132,
      "ag": 133,
      "ong": 134,
      "do": 135,
      "ub": 136,
      "ck": 137,
      "angan": 138,
      "of": 139,
      "kal": 140,
      "aman": 141,
      "ve": 142,
      "bo": 143,
      "co": 144,
      "ca": 145,
      "sit": 146,
      "ikan": 147,
      "bu": 148,
      "pem": 149,
      "ka": 150,
      "ua": 151,
      "tar": 152,
      "man": 153,
      "end": 154,
      "sem": 155,
      "eng": 156,
      "ort": 157,
      "ad": 158,
      "lu": 159,
      "me": 160,
      "to": 161,
      "peng": 162,
      "one": 163,
      "ser": 164,
      "ino": 165,
      "mas": 166,
      "pat": 167,
      "cas": 168,
      "pe": 169,
      "udah": 170,
      "baru": 171,
      "ne": 172,
      "ata": 173,
      "ko": 174,
      "line": 175,
      "yak": 176,
      "dewa": 177,
      "ara": 178,
      "ju": 179,
      "pu": 180,
      "ha": 181,
      "pro": 182,
      "ro": 183,
      "mu": 184,
      "sia": 185,
      "ket": 186,
      "ili": 187,
      "mer": 188,
      "tem": 189,
      "kem": 190,
      "jadi": 191,
      "wkwk": 192,
      "vi": 193,
      "for": 194,
      "asa": 195,
      "online": 196,
      "no": 197,
      "th": 198,
      "hari": 199,
      "ay": 200,
      "kap": 201,
      "res": 202,
      "alu": 203,
      "apa": 204,
      "and": 205,
      "im": 206,
      "mo": 207,
      "alah": 208,
      "live": 209,
      "baik": 210,
      "ate": 211,
      "ont": 212,
      "pul": 213,
      "ng": 214,
      "casino": 215,
      "bon": 216,
      "hat": 217,
      "aw": 218,
      "banget": 219,
      "han": 220,
      "mel": 221,
      "ent": 222,
      "indone": 223,
      "mainan": 224,
      "banyak": 225,
      "fa": 226,
      "gac": 227,
      "go": 228,
      "te": 229,
      "mati": 230,
      "permainan": 231,
      "pas": 232,
      "aran": 233,
      "ome": 234,
      "bes": 235,
      "sen": 236,
      "hot": 237,
      "win": 238,
      "ht": 239,
      "pel": 240,
      "unt": 241,
      "indonesia": 242,
      "pus": 243,
      "member": 244,
      "bet": 245,
      "ero": 246,
      "ic": 247,
      "dor": 248,
      "dra": 249,
      "we": 250,
      "ho": 251,
      "ting": 252,
      "be": 253,
      "meny": 254,
      "pan": 255,
      "bel": 256,
      "bur": 257,
      "lang": 258,
      "all": 259,
      "gr": 260,
      "gu": 261,
      "pot": 262,
      "ungan": 263,
      "prom": 264,
      "ght": 265,
      "ny": 266,
      "gaming": 267,
      "bank": 268,
      "duk": 269,
      "ver": 270,
      "anan": 271,
      "bih": 272,
      "dap": 273,
      "kom": 274,
      "min": 275,
      "ses": 276,
      "atkan": 277,
      "gun": 278,
      "jam": 279,
      "lau": 280,
      "lebih": 281,
      "gg": 282,
      "form": 283,
      "besar": 284,
      "bah": 285,
      "ger": 286,
      "sung": 287,
      "angat": 288,
      "way": 289,
      "kar": 290,
      "bg": 291,
      "home": 292,
      "ku": 293,
      "dia": 294,
      "daf": 295,
      "situs": 296,
      "daftar": 297,
      "og": 298,
      "ini": 299,
      "pri": 300,
      "bonus": 301,
      "ben": 302,
      "terbaik": 303,
      "bermain": 304,
      "but": 305,
      "pp": 306,
      "qu": 307,
      "so": 308,
      "est": 309,
      "indah": 310,
      "ih": 311,
      "pulau": 312,
      "gacor": 313,
      "ain": 314,
      "buat": 315,
      "uan": 316,
      "sport": 317,
      "ker": 318,
      "menang": 319,
      "kali": 320,
      "ana": 321,
      "ant": 322,
      "bay": 323,
      "uhan": 324,
      "tran": 325,
      "promo": 326,
      "ia": 327,
      "lah": 328,
      "pl": 329,
      "gak": 330,
      "kel": 331,
      "sy": 332,
      "sak": 333,
      "com": 334,
      "oker": 335,
      "semua": 336,
      "su": 337,
      "angg": 338,
      "tah": 339,
      "selalu": 340,
      "mah": 341,
      "ikin": 342,
      "pa": 343,
      "pili": 344,
      "wn": 345,
      "nin": 346,
      "sama": 347,
      "atan": 348,
      "mak": 349,
      "perca": 350,
      "bikin": 351,
      "jut": 352,
      "arkan": 353,
      "depo": 354,
      "oki": 355,
      "aku": 356,
      "itas": 357,
      "langsung": 358,
      "ninja": 359,
      "sc": 360,
      "windah": 361,
      "pert": 362,
      "down": 363,
      "percaya": 364,
      "ep": 365,
      "kes": 366,
      "engkap": 367,
      "aero": 368,
      "ge": 369,
      "app": 370,
      "ungi": 371,
      "deposit": 372,
      "har": 373,
      "lik": 374,
      "sangat": 375,
      "bantu": 376,
      "cak": 377,
      "ev": 378,
      "hi": 379,
      "wit": 380,
      "rez": 381,
      "kemen": 382,
      "ken": 383,
      "na": 384,
      "ip": 385,
      "jak": 386,
      "lan": 387,
      "eki": 388,
      "onton": 389,
      "mi": 390,
      "rp": 391,
      "lain": 392,
      "coba": 393,
      "aja": 394,
      "fo": 395,
      "the": 396,
      "aan": 397,
      "alaman": 398,
      "orang": 399,
      "terse": 400,
      "tim": 401,
      "jangan": 402,
      "pin": 403,
      "lai": 404,
      "gai": 405,
      "rezeki": 406,
      "bil": 407,
      "fer": 408,
      "ish": 409,
      "time": 410,
      "ed": 411,
      "pak": 412,
      "pemain": 413,
      "fit": 414,
      "hoki": 415,
      "yo": 416,
      "uka": 417,
      "bung": 418,
      "cari": 419,
      "ima": 420,
      "jong": 421,
      "atu": 422,
      "cepat": 423,
      "tel": 424,
      "jack": 425,
      "hub": 426,
      "load": 427,
      "fi": 428,
      "ala": 429,
      "ess": 430,
      "prag": 431,
      "matic": 432,
      "ac": 433,
      "ai": 434,
      "hasi": 435,
      "port": 436,
      "tp": 437,
      "nex": 438,
      "par": 439,
      "onal": 440,
      "layanan": 441,
      "pengalaman": 442,
      "mahjong": 443,
      "pragmatic": 444,
      "lengkap": 445,
      "menjadi": 446,
      "kon": 447,
      "qq": 448,
      "sam": 449,
      "tot": 450,
      "anya": 451,
      "ast": 452,
      "kalah": 453,
      "mana": 454,
      "fitur": 455,
      "mudah": 456,
      "wak": 457,
      "amat": 458,
      "und": 459,
      "bagai": 460,
      "spin": 461,
      "judi": 462,
      "lainnya": 463,
      "draw": 464,
      "download": 465,
      "bis": 466,
      "set": 467,
      "sub": 468,
      "asih": 469,
      "dapatkan": 470,
      "hasil": 471,
      "ki": 472,
      "ni": 473,
      "nonton": 474,
      "pay": 475,
      "terus": 476,
      "new": 477,
      "kocak": 478,
      "af": 479,
      "diri": 480,
      "masuk": 481,
      "cu": 482,
      "uang": 483,
      "arik": 484,
      "dewador": 485,
      "jackpot": 486,
      "car": 487,
      "kin": 488,
      "san": 489,
      "memberikan": 490,
      "aa": 491,
      "bal": 492,
      "kat": 493,
      "ilik": 494,
      "seru": 495,
      "hadi": 496,
      "with": 497,
      "br": 498,
      "col": 499,
      "gate": 500,
      "sekar": 501,
      "now": 502,
      "fish": 503,
      "he": 504,
      "kam": 505,
      "malah": 506,
      "pal": 507,
      "pet": 508,
      "ye": 509,
      "dis": 510,
      "ment": 511,
      "menarik": 512,
      "lis": 513,
      "oly": 514,
      "kemenangan": 515,
      "aj": 516,
      "bat": 517,
      "det": 518,
      "mal": 519,
      "put": 520,
      "satu": 521,
      "ore": 522,
      "right": 523,
      "sekarang": 524,
      "gua": 525,
      "jo": 526,
      "pt": 527,
      "atis": 528,
      "dat": 529,
      "alan": 530,
      "ahah": 531,
      "lit": 532,
      "saksi": 533,
      "poker": 534,
      "inya": 535,
      "enang": 536,
      "dit": 537,
      "diakan": 538,
      "try": 539,
      "kapan": 540,
      "con": 541,
      "ew": 542,
      "mit": 543,
      "sal": 544,
      "wan": 545,
      "star": 546,
      "popul": 547,
      "face": 548,
      "homehot": 549,
      "transaksi": 550,
      "dar": 551,
      "waktu": 552,
      "cr": 553,
      "hir": 554,
      "ian": 555,
      "kont": 556,
      "nah": 557,
      "inter": 558,
      "entu": 559,
      "ita": 560,
      "olah": 561,
      "idr": 562,
      "log": 563,
      "teman": 564,
      "pilihan": 565,
      "olym": 566,
      "ct": 567,
      "dana": 568,
      "mar": 569,
      "ode": 570,
      "menu": 571,
      "terbaru": 572,
      "usah": 573,
      "book": 574,
      "awarkan": 575,
      "formasi": 576,
      "iliki": 577,
      "bul": 578,
      "gn": 579,
      "mes": 580,
      "sof": 581,
      "tak": 582,
      "vasi": 583,
      "ream": 584,
      "biasa": 585,
      "cky": 586,
      "amanan": 587,
      "promosi": 588,
      "her": 589,
      "rum": 590,
      "sial": 591,
      "ikmati": 592,
      "produk": 593,
      "tinggi": 594,
      "plat": 595,
      "datang": 596,
      "cara": 597,
      "gem": 598,
      "uu": 599,
      "info": 600,
      "terpercaya": 601,
      "ungkin": 602,
      "popp": 603,
      "mulai": 604,
      "tempat": 605,
      "olympus": 606,
      "platform": 607,
      "poppy": 608,
      "bl": 609,
      "mul": 610,
      "vo": 611,
      "gabung": 612,
      "selamat": 613,
      "age": 614,
      "top": 615,
      "resmi": 616,
      "tersedia": 617,
      "hubungi": 618,
      "paling": 619,
      "bak": 620,
      "der": 621,
      "kata": 622,
      "nama": 623,
      "akhir": 624,
      "menawarkan": 625,
      "ikut": 626,
      "tif": 627,
      "olo": 628,
      "chat": 629,
      "chap": 630,
      "soft": 631,
      "dr": 632,
      "ey": 633,
      "hh": 634,
      "pah": 635,
      "tan": 636,
      "tam": 637,
      "wo": 638,
      "what": 639,
      "atur": 640,
      "berbagai": 641,
      "str": 642,
      "luar": 643,
      "lucky": 644,
      "penggun": 645,
      "untung": 646,
      "menye": 647,
      "tahun": 648,
      "event": 649,
      "homehotgame": 650,
      "ci": 651,
      "pang": 652,
      "sk": 653,
      "vest": 654,
      "informasi": 655,
      "atar": 656,
      "lihat": 657,
      "pernah": 658,
      "ital": 659,
      "memiliki": 660,
      "upa": 661,
      "taruhan": 662,
      "untungan": 663,
      "beli": 664,
      "gunakan": 665,
      "toto": 666,
      "chapter": 667,
      "cess": 668,
      "angka": 669,
      "akukan": 670,
      "likasi": 671,
      "next": 672,
      "rumah": 673,
      "dun": 674,
      "gel": 675,
      "ani": 676,
      "anak": 677,
      "akses": 678,
      "link": 679,
      "benar": 680,
      "pertama": 681,
      "olahra": 682,
      "buk": 683,
      "gul": 684,
      "je": 685,
      "kk": 686,
      "pil": 687,
      "sm": 688,
      "sho": 689,
      "tor": 690,
      "tik": 691,
      "bantuan": 692,
      "detik": 693,
      "hid": 694,
      "kasih": 695,
      "pon": 696,
      "asan": 697,
      "dil": 698,
      "omb": 699,
      "logo": 700,
      "nov": 701,
      "quot": 702,
      "au": 703,
      "fin": 704,
      "gal": 705,
      "ham": 706,
      "jog": 707,
      "aplikasi": 708,
      "gampang": 709,
      "mobil": 710,
      "panik": 711,
      "gram": 712,
      "bayaran": 713,
      "populer": 714,
      "ex": 715,
      "gar": 716,
      "kok": 717,
      "op": 718,
      "salah": 719,
      "terima": 720,
      "oti": 721,
      "ust": 722,
      "pembayaran": 723,
      "pascol": 724,
      "web": 725,
      "aut": 726,
      "cl": 727,
      "du": 728,
      "ee": 729,
      "ner": 730,
      "sur": 731,
      "ali": 732,
      "mau": 733,
      "tion": 734,
      "tiap": 735,
      "kec": 736,
      "pulsa": 737,
      "burger": 738,
      "dunia": 739,
      "hidup": 740,
      "bas": 741,
      "eh": 742,
      "jp": 743,
      "kas": 744,
      "sg": 745,
      "tis": 746,
      "tek": 747,
      "vid": 748,
      "wer": 749,
      "war": 750,
      "atas": 751,
      "ami": 752,
      "siap": 753,
      "ori": 754,
      "stem": 755,
      "doey": 756,
      "bola": 757,
      "ortun": 758,
      "pilih": 759,
      "ologi": 760,
      "olahraga": 761,
      "away": 762,
      "jel": 763,
      "net": 764,
      "pi": 765,
      "ator": 766,
      "dig": 767,
      "jawa": 768,
      "refer": 769,
      "ild": 770,
      "stream": 771,
      "kelu": 772,
      "mesin": 773,
      "bla": 774,
      "dal": 775,
      "fortun": 776,
      "hing": 777,
      "jen": 778,
      "jir": 779,
      "mat": 780,
      "met": 781,
      "makan": 782,
      "nom": 783,
      "ris": 784,
      "ukan": 785,
      "sih": 786,
      "berapa": 787,
      "bergabung": 788,
      "mainkan": 789,
      "upakan": 790,
      "bayar": 791,
      "menyediakan": 792,
      "ade": 793,
      "king": 794,
      "mic": 795,
      "pg": 796,
      "ram": 797,
      "ensi": 798,
      "max": 799,
      "maen": 800,
      "asional": 801,
      "prin": 802,
      "dew": 803,
      "sekali": 804,
      "wkwkwk": 805,
      "pusat": 806,
      "keren": 807,
      "black": 808,
      "ail": 809,
      "jar": 810,
      "invest": 811,
      "bagi": 812,
      "playtime": 813,
      "dewadra": 814,
      "syar": 815,
      "cuma": 816,
      "hadiah": 817,
      "bun": 818,
      "bro": 819,
      "fe": 820,
      "hati": 821,
      "isi": 822,
      "jum": 823,
      "ly": 824,
      "lap": 825,
      "ph": 826,
      "ru": 827,
      "light": 828,
      "ity": 829,
      "pre": 830,
      "doa": 831,
      "ubur": 832,
      "ending": 833,
      "trans": 834,
      "entuan": 835,
      "hingga": 836,
      "das": 837,
      "ji": 838,
      "jalan": 839,
      "lupa": 840,
      "mg": 841,
      "mungkin": 842,
      "rtp": 843,
      "wah": 844,
      "za": 845,
      "erve": 846,
      "api": 847,
      "utama": 848,
      "penye": 849,
      "ribu": 850,
      "idn": 851,
      "ketentuan": 852,
      "lanjut": 853,
      "fortune": 854,
      "princess": 855,
      "dewdor": 856,
      "ble": 857,
      "gan": 858,
      "gol": 859,
      "joker": 860,
      "kah": 861,
      "py": 862,
      "sol": 863,
      "wor": 864,
      "ina": 865,
      "atter": 866,
      "akun": 867,
      "prof": 868,
      "penuh": 869,
      "komen": 870,
      "rogaming": 871,
      "reserve": 872,
      "scatter": 873,
      "hibur": 874,
      "dewadora": 875,
      "dah": 876,
      "data": 877,
      "gon": 878,
      "jakan": 879,
      "od": 880,
      "emang": 881,
      "mendapatkan": 882,
      "perusah": 883,
      "bag": 884,
      "rip": 885,
      "menggunakan": 886,
      "medi": 887,
      "masalah": 888,
      "pelangg": 889,
      "dapet": 890,
      "jamin": 891,
      "withdraw": 892,
      "enangkan": 893,
      "digital": 894,
      "keluar": 895,
      "reserved": 896,
      "tra": 897,
      "wi": 898,
      "ype": 899,
      "arta": 900,
      "oran": 901,
      "perlu": 902,
      "unggul": 903,
      "real": 904,
      "keamanan": 905,
      "cash": 906,
      "merasa": 907,
      "merupakan": 908,
      "vide": 909,
      "alui": 910,
      "awal": 911,
      "melalui": 912,
      "allet": 913,
      "cry": 914,
      "jogja": 915,
      "syarat": 916,
      "bri": 917,
      "cip": 918,
      "dang": 919,
      "hal": 920,
      "tas": 921,
      "tok": 922,
      "wild": 923,
      "berita": 924,
      "lagi": 925,
      "membuat": 926,
      "membantu": 927,
      "day": 928,
      "indungi": 929,
      "tuh": 930,
      "ation": 931,
      "ago": 932,
      "kalo": 933,
      "dewadoa": 934,
      "jual": 935,
      "dukung": 936,
      "privasi": 937,
      "makin": 938,
      "fire": 939,
      "auto": 940,
      "microgaming": 941,
      "penyedia": 942,
      "perusahaan": 943,
      "medium": 944,
      "dong": 945,
      "jang": 946,
      "oh": 947,
      "ral": 948,
      "ss": 949,
      "sum": 950,
      "somb": 951,
      "twin": 952,
      "usi": 953,
      "arca": 954,
      "ash": 955,
      "ikasi": 956,
      "uruh": 957,
      "jad": 958,
      "ute": 959,
      "ked": 960,
      "bukan": 961,
      "sampe": 962,
      "sandi": 963,
      "mitra": 964,
      "pengguna": 965,
      "tekn": 966,
      "pelanggan": 967,
      "sombong": 968,
      "arcade": 969,
      "cer": 970,
      "dom": 971,
      "hen": 972,
      "yal": 973,
      "dik": 974,
      "sistem": 975,
      "bera": 976,
      "kebi": 977,
      "peluang": 978,
      "gratis": 979,
      "kenal": 980,
      "kebijakan": 981,
      "bin": 982,
      "hak": 983,
      "mis": 984,
      "pun": 985,
      "inst": 986,
      "emi": 987,
      "ele": 988,
      "ika": 989,
      "use": 990,
      "liat": 991,
      "prot": 992,
      "tau": 993,
      "off": 994,
      "adv": 995,
      "modal": 996,
      "bonan": 997,
      "bener": 998,
      "juta": 999,
      "harga": 1000,
      "tersebut": 1001,
      "part": 1002,
      "pragmaticplay": 1003,
      "kontak": 1004,
      "login": 1005,
      "vider": 1006,
      "gw": 1007,
      "jur": 1008,
      "nikmati": 1009,
      "nasional": 1010,
      "oga": 1011,
      "our": 1012,
      "tet": 1013,
      "tur": 1014,
      "tangg": 1015,
      "wd": 1016,
      "akak": 1017,
      "esport": 1018,
      "ingk": 1019,
      "unggu": 1020,
      "penting": 1021,
      "ulu": 1022,
      "raf": 1023,
      "seluruh": 1024,
      "udh": 1025,
      "kalau": 1026,
      "semoga": 1027,
      "togel": 1028,
      "sering": 1029,
      "haban": 1030,
      "ketua": 1031,
      "ilih": 1032,
      "vice": 1033,
      "beda": 1034,
      "nyata": 1035,
      "video": 1036,
      "cin": 1037,
      "des": 1038,
      "ding": 1039,
      "fast": 1040,
      "gm": 1041,
      "gara": 1042,
      "kor": 1043,
      "kini": 1044,
      "pes": 1045,
      "ras": 1046,
      "ten": 1047,
      "eko": 1048,
      "poin": 1049,
      "power": 1050,
      "mant": 1051,
      "provider": 1052,
      "sesua": 1053,
      "hadir": 1054,
      "facebook": 1055,
      "kasino": 1056,
      "referral": 1057,
      "maxwin": 1058,
      "unggulan": 1059,
      "bot": 1060,
      "bca": 1061,
      "buka": 1062,
      "cul": 1063,
      "dan": 1064,
      "gk": 1065,
      "ll": 1066,
      "lalu": 1067,
      "nam": 1068,
      "oo": 1069,
      "pad": 1070,
      "suka": 1071,
      "tri": 1072,
      "wal": 1073,
      "empat": 1074,
      "menit": 1075,
      "mencari": 1076,
      "bersama": 1077,
      "ingan": 1078,
      "keu": 1079,
      "keuntungan": 1080,
      "store": 1081,
      "sav": 1082,
      "agen": 1083,
      "site": 1084,
      "semangat": 1085,
      "prose": 1086,
      "respon": 1087,
      "ngakak": 1088,
      "melakukan": 1089,
      "gacir": 1090,
      "beberapa": 1091,
      "menyenangkan": 1092,
      "dukungan": 1093,
      "hokidewa": 1094,
      "nexus": 1095,
      "whats": 1096,
      "bagian": 1097,
      "gold": 1098,
      "habanero": 1099,
      "cuan": 1100,
      "ii": 1101,
      "iah": 1102,
      "jan": 1103,
      "kh": 1104,
      "kis": 1105,
      "nis": 1106,
      "pur": 1107,
      "suk": 1108,
      "ui": 1109,
      "wb": 1110,
      "anti": 1111,
      "era": 1112,
      "asy": 1113,
      "akat": 1114,
      "sim": 1115,
      "six": 1116,
      "oritas": 1117,
      "isode": 1118,
      "red": 1119,
      "lew": 1120,
      "atif": 1121,
      "cook": 1122,
      "copy": 1123,
      "mera": 1124,
      "dragon": 1125,
      "gera": 1126,
      "uanya": 1127,
      "episode": 1128,
      "gede": 1129,
      "join": 1130,
      "starlight": 1131,
      "metode": 1132,
      "nomor": 1133,
      "investasi": 1134,
      "bonanza": 1135,
      "sesuai": 1136,
      "keuangan": 1137,
      "copyright": 1138,
      "agi": 1139,
      "if": 1140,
      "kot": 1141,
      "lem": 1142,
      "os": 1143,
      "over": 1144,
      "teng": 1145,
      "yang": 1146,
      "email": 1147,
      "sign": 1148,
      "apun": 1149,
      "pers": 1150,
      "asia": 1151,
      "premi": 1152,
      "memu": 1153,
      "selama": 1154,
      "service": 1155,
      "masa": 1156,
      "gopay": 1157,
      "quest": 1158,
      "lish": 1159,
      "hiburan": 1160,
      "cipta": 1161,
      "teknologi": 1162,
      "whatsapp": 1163,
      "az": 1164,
      "gen": 1165,
      "gas": 1166,
      "gis": 1167,
      "klik": 1168,
      "lok": 1169,
      "ovo": 1170,
      "sing": 1171,
      "tt": 1172,
      "tangan": 1173,
      "anc": 1174,
      "aki": 1175,
      "dise": 1176,
      "elo": 1177,
      "terbesar": 1178,
      "apan": 1179,
      "usan": 1180,
      "usus": 1181,
      "bangg": 1182,
      "ure": 1183,
      "sehat": 1184,
      "segera": 1185,
      "keber": 1186,
      "umum": 1187,
      "manfa": 1188,
      "mandiri": 1189,
      "english": 1190,
      "mega": 1191,
      "dewadr": 1192,
      "araan": 1193,
      "ayanan": 1194,
      "pelayanan": 1195,
      "minim": 1196,
      "minute": 1197,
      "suara": 1198,
      "ewallet": 1199,
      "jepe": 1200,
      "otion": 1201,
      "jenis": 1202,
      "transfer": 1203,
      "lagimg": 1204,
      "henti": 1205,
      "protot": 1206,
      "ab": 1207,
      "bek": 1208,
      "blo": 1209,
      "cy": 1210,
      "don": 1211,
      "fre": 1212,
      "hor": 1213,
      "hahah": 1214,
      "jl": 1215,
      "jat": 1216,
      "jili": 1217,
      "kur": 1218,
      "mon": 1219,
      "ning": 1220,
      "rr": 1221,
      "tang": 1222,
      "ual": 1223,
      "anda": 1224,
      "albank": 1225,
      "ement": 1226,
      "otom": 1227,
      "maaf": 1228,
      "user": 1229,
      "games": 1230,
      "ulang": 1231,
      "ill": 1232,
      "ubah": 1233,
      "boc": 1234,
      "royal": 1235,
      "kembang": 1236,
      "meli": 1237,
      "ggy": 1238,
      "ways": 1239,
      "sports": 1240,
      "antplay": 1241,
      "jakarta": 1242,
      "lancar": 1243,
      "tele": 1244,
      "litas": 1245,
      "saldo": 1246,
      "website": 1247,
      "agoidr": 1248,
      "savage": 1249,
      "khusus": 1250,
      "wbtoto": 1251,
      "cooky": 1252,
      "aya": 1253,
      "gat": 1254,
      "get": 1255,
      "hum": 1256,
      "iz": 1257,
      "kum": 1258,
      "kong": 1259,
      "kend": 1260,
      "pm": 1261,
      "sup": 1262,
      "tikan": 1263,
      "vitas": 1264,
      "yah": 1265,
      "enter": 1266,
      "arikan": 1267,
      "ase": 1268,
      "asik": 1269,
      "siapa": 1270,
      "orit": 1271,
      "oto": 1272,
      "limit": 1273,
      "penarikan": 1274,
      "memilih": 1275,
      "rilis": 1276,
      "poli": 1277,
      "tron": 1278,
      "semuanya": 1279,
      "vip": 1280,
      "ateg": 1281,
      "icon": 1282,
      "nyaman": 1283,
      "komun": 1284,
      "sosial": 1285,
      "kalian": 1286,
      "saktis": 1287,
      "jakpot": 1288,
      "bisnis": 1289,
      "news": 1290,
      "konten": 1291,
      "mobile": 1292,
      "jawab": 1293,
      "jadwal": 1294,
      "esports": 1295,
      "mantap": 1296,
      "saktispin": 1297,
      "av": 1298,
      "bit": 1299,
      "bni": 1300,
      "cam": 1301,
      "cur": 1302,
      "date": 1303,
      "dulu": 1304,
      "hy": 1305,
      "hit": 1306,
      "iver": 1307,
      "kre": 1308,
      "kol": 1309,
      "nih": 1310,
      "rup": 1311,
      "swe": 1312,
      "sini": 1313,
      "uj": 1314,
      "uda": 1315,
      "yar": 1316,
      "anja": 1317,
      "emat": 1318,
      "ember": 1319,
      "menem": 1320,
      "item": 1321,
      "badi": 1322,
      "bawa": 1323,
      "back": 1324,
      "baca": 1325,
      "keunggulan": 1326,
      "update": 1327,
      "tact": 1328,
      "spade": 1329,
      "kaja": 1330,
      "kayak": 1331,
      "puas": 1332,
      "wkwkw": 1333,
      "butuh": 1334,
      "you": 1335,
      "yout": 1336,
      "bagaimana": 1337,
      "contact": 1338,
      "tampil": 1339,
      "jumlah": 1340,
      "dewdora": 1341,
      "beragam": 1342,
      "tetap": 1343,
      "responsi": 1344,
      "prototype": 1345,
      "telegram": 1346,
      "ax": 1347,
      "bata": 1348,
      "cq": 1349,
      "cah": 1350,
      "cok": 1351,
      "city": 1352,
      "flagimg": 1353,
      "gang": 1354,
      "hel": 1355,
      "jah": 1356,
      "kr": 1357,
      "lama": 1358,
      "mun": 1359,
      "pv": 1360,
      "ren": 1361,
      "ratar": 1362,
      "vorit": 1363,
      "wis": 1364,
      "erja": 1365,
      "indi": 1366,
      "asaran": 1367,
      "simul": 1368,
      "teri": 1369,
      "apk": 1370,
      "berl": 1371,
      "uti": 1372,
      "tip": 1373,
      "umb": 1374,
      "upun": 1375,
      "sab": 1376,
      "menguntung": 1377,
      "oney": 1378,
      "masyar": 1379,
      "habis": 1380,
      "ketid": 1381,
      "temen": 1382,
      "favorit": 1383,
      "goog": 1384,
      "gue": 1385,
      "pribadi": 1386,
      "unduh": 1387,
      "show": 1388,
      "kecil": 1389,
      "keluarga": 1390,
      "tanggung": 1391,
      "empatan": 1392,
      "keberuntungan": 1393,
      "minimal": 1394,
      "avatar": 1395,
      "menguntungkan": 1396,
      "masyarakat": 1397,
      "air": 1398,
      "by": 1399,
      "bol": 1400,
      "can": 1401,
      "cuk": 1402,
      "ction": 1403,
      "gini": 1404,
      "ial": 1405,
      "kun": 1406,
      "kir": 1407,
      "rel": 1408,
      "was": 1409,
      "enya": 1410,
      "ard": 1411,
      "elek": 1412,
      "mener": 1413,
      "menikmati": 1414,
      "berikut": 1415,
      "inggu": 1416,
      "asis": 1417,
      "uran": 1418,
      "dek": 1419,
      "bawah": 1420,
      "kebut": 1421,
      "biaya": 1422,
      "eksi": 1423,
      "playstar": 1424,
      "ube": 1425,
      "inovasi": 1426,
      "pasang": 1427,
      "sens": 1428,
      "belanja": 1429,
      "kuat": 1430,
      "kual": 1431,
      "prioritas": 1432,
      "kese": 1433,
      "kesempatan": 1434,
      "pakai": 1435,
      "your": 1436,
      "telat": 1437,
      "undang": 1438,
      "disini": 1439,
      "mental": 1440,
      "akhirnya": 1441,
      "tambah": 1442,
      "strik": 1443,
      "brow": 1444,
      "word": 1445,
      "signalbank": 1446,
      "rupiah": 1447,
      "google": 1448,
      "kebutuhan": 1449,
      "cust": 1450,
      "dung": 1451,
      "dok": 1452,
      "dwa": 1453,
      "glo": 1454,
      "hu": 1455,
      "kasi": 1456,
      "nn": 1457,
      "pn": 1458,
      "qr": 1459,
      "rah": 1460,
      "tun": 1461,
      "twit": 1462,
      "yy": 1463,
      "antar": 1464,
      "alami": 1465,
      "aksi": 1466,
      "emas": 1467,
      "ory": 1468,
      "term": 1469,
      "tery": 1470,
      "terlengkap": 1471,
      "ternyata": 1472,
      "otor": 1473,
      "bangun": 1474,
      "depan": 1475,
      "sepak": 1476,
      "tiba": 1477,
      "memper": 1478,
      "pool": 1479,
      "saw": 1480,
      "sabung": 1481,
      "spe": 1482,
      "linkaja": 1483,
      "agram": 1484,
      "cksaw": 1485,
      "koi": 1486,
      "juan": 1487,
      "hacksaw": 1488,
      "program": 1489,
      "harian": 1490,
      "mode": 1491,
      "faq": 1492,
      "tepat": 1493,
      "langkah": 1494,
      "bgt": 1495,
      "bentar": 1496,
      "soci": 1497,
      "kerja": 1498,
      "hasilnya": 1499,
      "ajah": 1500,
      "tanaman": 1501,
      "advantplay": 1502,
      "fastspin": 1503,
      "sukses": 1504,
      "sixsix": 1505,
      "sportsbook": 1506,
      "support": 1507,
      "ratarata": 1508,
      "simulator": 1509,
      "kualitas": 1510,
      "custom": 1511,
      "dwador": 1512,
      "twitter": 1513,
      "awa": 1514,
      "abo": 1515,
      "bor": 1516,
      "bng": 1517,
      "blog": 1518,
      "cap": 1519,
      "cek": 1520,
      "fak": 1521,
      "gur": 1522,
      "hong": 1523,
      "km": 1524,
      "kari": 1525,
      "krip": 1526,
      "lg": 1527,
      "lele": 1528,
      "qris": 1529,
      "tv": 1530,
      "tre": 1531,
      "vol": 1532,
      "vir": 1533,
      "ww": 1534,
      "xbet": 1535,
      "askan": 1536,
      "dih": 1537,
      "sik": 1538,
      "menga": 1539,
      "meningk": 1540,
      "esa": 1541,
      "gaya": 1542,
      "utan": 1543,
      "mainin": 1544,
      "pencari": 1545,
      "penasaran": 1546,
      "memudah": 1547,
      "kece": 1548,
      "rim": 1549,
      "rich": 1550,
      "daya": 1551,
      "gameitem": 1552,
      "tai": 1553,
      "cau": 1554,
      "ayam": 1555,
      "ress": 1556,
      "andro": 1557,
      "livechat": 1558,
      "tec": 1559,
      "tech": 1560,
      "senang": 1561,
      "sendiri": 1562,
      "http": 1563,
      "bahkan": 1564,
      "makasih": 1565,
      "paket": 1566,
      "kampus": 1567,
      "ikuti": 1568,
      "bagus": 1569,
      "gmt": 1570,
      "meraih": 1571,
      "tronik": 1572,
      "pvz": 1573,
      "sabtu": 1574,
      "cukup": 1575,
      "elektronik": 1576,
      "browser": 1577,
      "global": 1578,
      "meningkatkan": 1579,
      "memudahkan": 1580,
      "cro": 1581,
      "capa": 1582,
      "esi": 1583,
      "foto": 1584,
      "happ": 1585,
      "lam": 1586,
      "my": 1587,
      "por": 1588,
      "pir": 1589,
      "pub": 1590,
      "rasa": 1591,
      "vel": 1592,
      "wati": 1593,
      "ze": 1594,
      "akin": 1595,
      "aktif": 1596,
      "dir": 1597,
      "disi": 1598,
      "simal": 1599,
      "mencoba": 1600,
      "tern": 1601,
      "macau": 1602,
      "jaya": 1603,
      "jaga": 1604,
      "sex": 1605,
      "tivitas": 1606,
      "regis": 1607,
      "memast": 1608,
      "gih": 1609,
      "selasa": 1610,
      "selengkap": 1611,
      "chi": 1612,
      "ongo": 1613,
      "kaya": 1614,
      "udahan": 1615,
      "kode": 1616,
      "tembak": 1617,
      "nolimit": 1618,
      "hatan": 1619,
      "belaj": 1620,
      "iharaan": 1621,
      "maksimal": 1622,
      "pertanya": 1623,
      "fishing": 1624,
      "daring": 1625,
      "bulan": 1626,
      "strate": 1627,
      "jelajah": 1628,
      "bergabunglah": 1629,
      "solusi": 1630,
      "ategori": 1631,
      "komunitas": 1632,
      "youtube": 1633,
      "berlaku": 1634,
      "customer": 1635,
      "kecewa": 1636,
      "happy": 1637,
      "memastikan": 1638,
      "selengkapnya": 1639,
      "pertanyaan": 1640,
      "abis": 1641,
      "cre": 1642,
      "den": 1643,
      "fok": 1644,
      "gre": 1645,
      "hil": 1646,
      "hemat": 1647,
      "kang": 1648,
      "kategori": 1649,
      "lat": 1650,
      "ml": 1651,
      "mata": 1652,
      "minggu": 1653,
      "neko": 1654,
      "oper": 1655,
      "ple": 1656,
      "pand": 1657,
      "ran": 1658,
      "rus": 1659,
      "wel": 1660,
      "yuk": 1661,
      "erin": 1662,
      "inkan": 1663,
      "inte": 1664,
      "eni": 1665,
      "art": 1666,
      "alth": 1667,
      "ahal": 1668,
      "onom": 1669,
      "dio": 1670,
      "siang": 1671,
      "berhasil": 1672,
      "berbeda": 1673,
      "lawan": 1674,
      "maya": 1675,
      "ingface": 1676,
      "uster": 1677,
      "kantor": 1678,
      "urah": 1679,
      "memang": 1680,
      "statis": 1681,
      "lottery": 1682,
      "leher": 1683,
      "indo": 1684,
      "slots": 1685,
      "player": 1686,
      "sabet": 1687,
      "menghubungi": 1688,
      "manu": 1689,
      "semakin": 1690,
      "neger": 1691,
      "temukan": 1692,
      "view": 1693,
      "pastikan": 1694,
      "bebas": 1695,
      "promotion": 1696,
      "nyangka": 1697,
      "bahasa": 1698,
      "anggot": 1699,
      "epic": 1700,
      "telep": 1701,
      "crash": 1702,
      "bulkan": 1703,
      "bling": 1704,
      "mulu": 1705,
      "aturan": 1706,
      "november": 1707,
      "cluster": 1708,
      "ohon": 1709,
      "party": 1710,
      "poinbet": 1711,
      "padahal": 1712,
      "kota": 1713,
      "manfaat": 1714,
      "otomatis": 1715,
      "sweet": 1716,
      "spadegaming": 1717,
      "kesehatan": 1718,
      "android": 1719,
      "integr": 1720,
      "negeri": 1721,
      "bp": 1722,
      "ball": 1723,
      "cang": 1724,
      "cet": 1725,
      "cle": 1726,
      "dem": 1727,
      "fil": 1728,
      "fir": 1729,
      "geng": 1730,
      "graf": 1731,
      "huk": 1732,
      "hone": 1733,
      "hand": 1734,
      "pok": 1735,
      "ret": 1736,
      "ue": 1737,
      "vis": 1738,
      "yakan": 1739,
      "erah": 1740,
      "are": 1741,
      "asal": 1742,
      "asakan": 1743,
      "ambil": 1744,
      "eliharaan": 1745,
      "mendukung": 1746,
      "terjadi": 1747,
      "termasuk": 1748,
      "terakhir": 1749,
      "terpopuler": 1750,
      "terkini": 1751,
      "terjadwal": 1752,
      "apapun": 1753,
      "berli": 1754,
      "lagu": 1755,
      "list": 1756,
      "listrik": 1757,
      "perjudi": 1758,
      "bangkan": 1759,
      "istime": 1760,
      "bab": 1761,
      "sebenar": 1762,
      "sedang": 1763,
      "reken": 1764,
      "memohon": 1765,
      "bihan": 1766,
      "ekonom": 1767,
      "taw": 1768,
      "coin": 1769,
      "pemeliharaan": 1770,
      "kawan": 1771,
      "lucu": 1772,
      "peda": 1773,
      "negara": 1774,
      "ketawa": 1775,
      "kemudahan": 1776,
      "impah": 1777,
      "melimpah": 1778,
      "sensi": 1779,
      "winner": 1780,
      "bahagi": 1781,
      "kartu": 1782,
      "super": 1783,
      "tahu": 1784,
      "kena": 1785,
      "setia": 1786,
      "payment": 1787,
      "balik": 1788,
      "kami": 1789,
      "malam": 1790,
      "temanteman": 1791,
      "anime": 1792,
      "dilindungi": 1793,
      "finan": 1794,
      "otif": 1795,
      "pgsoft": 1796,
      "phone": 1797,
      "profesi": 1798,
      "instagram": 1799,
      "offline": 1800,
      "botak": 1801,
      "kissy": 1802,
      "asyik": 1803,
      "lewat": 1804,
      "premier": 1805,
      "memuaskan": 1806,
      "aztec": 1807,
      "lokal": 1808,
      "free": 1809,
      "melihat": 1810,
      "iversit": 1811,
      "kredit": 1812,
      "responsible": 1813,
      "help": 1814,
      "showdown": 1815,
      "pencarian": 1816,
      "https": 1817,
      "crowd": 1818,
      "sexy": 1819,
      "strategi": 1820,
      "telepon": 1821,
      "hukum": 1822,
      "perjudian": 1823,
      "rekening": 1824,
      "abang": 1825,
      "bap": 1826,
      "cal": 1827,
      "come": 1828,
      "dam": 1829,
      "del": 1830,
      "ff": 1831,
      "fle": 1832,
      "jal": 1833,
      "jangka": 1834,
      "money": 1835,
      "oi": 1836,
      "pol": 1837,
      "pto": 1838,
      "sar": 1839,
      "sah": 1840,
      "sword": 1841,
      "tuk": 1842,
      "tunggu": 1843,
      "vari": 1844,
      "wm": 1845,
      "ence": 1846,
      "artik": 1847,
      "asli": 1848,
      "ashi": 1849,
      "akny": 1850,
      "aktivitas": 1851,
      "dian": 1852,
      "dikan": 1853,
      "ditim": 1854,
      "terlalu": 1855,
      "apkan": 1856,
      "ingat": 1857,
      "lie": 1858,
      "gada": 1859,
      "itu": 1860,
      "bac": 1861,
      "gambling": 1862,
      "sek": 1863,
      "seder": 1864,
      "rek": 1865,
      "peny": 1866,
      "pendi": 1867,
      "penaw": 1868,
      "ilmu": 1869,
      "cher": 1870,
      "sayang": 1871,
      "bos": 1872,
      "lusi": 1873,
      "toh": 1874,
      "pengen": 1875,
      "seri": 1876,
      "wkwkwkwk": 1877,
      "aysia": 1878,
      "andal": 1879,
      "password": 1880,
      "pelaj": 1881,
      "betting": 1882,
      "icial": 1883,
      "sungg": 1884,
      "soal": 1885,
      "kele": 1886,
      "image": 1887,
      "hubung": 1888,
      "parkir": 1889,
      "setoran": 1890,
      "contoh": 1891,
      "popular": 1892,
      "internasional": 1893,
      "entukan": 1894,
      "penggunaan": 1895,
      "nextspin": 1896,
      "duga": 1897,
      "basket": 1898,
      "cashback": 1899,
      "crypto": 1900,
      "punya": 1901,
      "rasakan": 1902,
      "singap": 1903,
      "bocil": 1904,
      "wbtotoquot": 1905,
      "muncul": 1906,
      "ution": 1907,
      "ketidakny": 1908,
      "asiswa": 1909,
      "social": 1910,
      "hongkong": 1911,
      "esaikan": 1912,
      "capai": 1913,
      "belajar": 1914,
      "jelajahi": 1915,
      "fokus": 1916,
      "erintah": 1917,
      "sabetslot": 1918,
      "sebenarnya": 1919,
      "artikel": 1920,
      "ditimbulkan": 1921,
      "penawaran": 1922,
      "ketidaknyamanan": 1923,
      "dy": 1924,
      "ful": 1925,
      "gin": 1926,
      "gasi": 1927,
      "gro": 1928,
      "hap": 1929,
      "jd": 1930,
      "jt": 1931,
      "jaman": 1932,
      "lng": 1933,
      "muh": 1934,
      "mili": 1935,
      "motor": 1936,
      "ping": 1937,
      "rin": 1938,
      "sh": 1939,
      "sin": 1940,
      "sus": 1941,
      "tant": 1942,
      "uju": 1943,
      "ucher": 1944,
      "val": 1945,
      "vpn": 1946,
      "won": 1947,
      "annya": 1948,
      "anjut": 1949,
      "asure": 1950,
      "amu": 1951,
      "amon": 1952,
      "dip": 1953,
      "diper": 1954,
      "universit": 1955,
      "mengi": 1956,
      "terl": 1957,
      "terkenal": 1958,
      "berkah": 1959,
      "beranda": 1960,
      "berubah": 1961,
      "sep": 1962,
      "sejak": 1963,
      "reak": 1964,
      "rekomen": 1965,
      "kepu": 1966,
      "ollie": 1967,
      "ily": 1968,
      "stress": 1969,
      "risi": 1970,
      "daily": 1971,
      "umber": 1972,
      "leag": 1973,
      "gila": 1974,
      "gihan": 1975,
      "tual": 1976,
      "playtry": 1977,
      "tagihan": 1978,
      "trasi": 1979,
      "ongan": 1980,
      "pemenang": 1981,
      "pemerintah": 1982,
      "ender": 1983,
      "server": 1984,
      "sertif": 1985,
      "pecah": 1986,
      "proses": 1987,
      "merasakan": 1988,
      "awasi": 1989,
      "melindungi": 1990,
      "team": 1991,
      "senin": 1992,
      "panjang": 1993,
      "verif": 1994,
      "daftaran": 1995,
      "sakit": 1996,
      "ninjaaa": 1997,
      "navi": 1998,
      "pake": 1999,
      "fiturfitur": 2000,
      "afb": 2001,
      "diskon": 2002,
      "malaysia": 2003,
      "market": 2004,
      "benarbenar": 2005,
      "bukti": 2006,
      "shope": 2007,
      "dilakukan": 2008,
      "makanya": 2009,
      "halo": 2010,
      "toko": 2011,
      "official": 2012,
      "cinta": 2013,
      "disediakan": 2014,
      "royale": 2015,
      "izin": 2016,
      "asiktoto": 2017,
      "menerima": 2018,
      "welcome": 2019,
      "statistik": 2020,
      "istimewa": 2021,
      "ekonomi": 2022,
      "tawarkan": 2023,
      "finansial": 2024,
      "pendidikan": 2025,
      "kelebihan": 2026,
      "league": 2027,
      "aer": 2028,
      "bt": 2029,
      "blu": 2030,
      "bent": 2031,
      "cb": 2032,
      "cel": 2033,
      "cor": 2034,
      "center": 2035,
      "din": 2036,
      "dasi": 2037,
      "fc": 2038,
      "gh": 2039,
      "gra": 2040,
      "gend": 2041,
      "hp": 2042,
      "jer": 2043,
      "jgn": 2044,
      "ky": 2045,
      "kha": 2046,
      "luk": 2047,
      "mik": 2048,
      "mil": 2049,
      "muka": 2050,
      "nal": 2051,
      "out": 2052,
      "pc": 2053,
      "pho": 2054,
      "pih": 2055,
      "pala": 2056,
      "rom": 2057,
      "rate": 2058,
      "sd": 2059,
      "son": 2060,
      "sli": 2061,
      "sul": 2062,
      "ty": 2063,
      "tomb": 2064,
      "tumb": 2065,
      "vac": 2066,
      "anj": 2067,
      "ine": 2068,
      "enak": 2069,
      "amen": 2070,
      "dition": 2071,
      "diawasi": 2072,
      "ora": 2073,
      "mencapai": 2074,
      "teran": 2075,
      "berikan": 2076,
      "berkat": 2077,
      "bertransaksi": 2078,
      "berhenti": 2079,
      "esel": 2080,
      "maupun": 2081,
      "peri": 2082,
      "perban": 2083,
      "ite": 2084,
      "itmen": 2085,
      "isasi": 2086,
      "issu": 2087,
      "baga": 2088,
      "sehari": 2089,
      "sedih": 2090,
      "tiger": 2091,
      "read": 2092,
      "pendaftaran": 2093,
      "stus": 2094,
      "biar": 2095,
      "bilitas": 2096,
      "atian": 2097,
      "selatan": 2098,
      "low": 2099,
      "amanya": 2100,
      "count": 2101,
      "caish": 2102,
      "kait": 2103,
      "puan": 2104,
      "tema": 2105,
      "kematian": 2106,
      "via": 2107,
      "ayo": 2108,
      "momen": 2109,
      "moder": 2110,
      "pulu": 2111,
      "nge": 2112,
      "hana": 2113,
      "best": 2114,
      "verage": 2115,
      "komisi": 2116,
      "karna": 2117,
      "privac": 2118,
      "butan": 2119,
      "sos": 2120,
      "menangkan": 2121,
      "kelas": 2122,
      "system": 2123,
      "hubungan": 2124,
      "acara": 2125,
      "account": 2126,
      "qqpool": 2127,
      "subsc": 2128,
      "care": 2129,
      "petual": 2130,
      "woi": 2131,
      "sky": 2132,
      "garuda": 2133,
      "jelas": 2134,
      "ribuan": 2135,
      "dompet": 2136,
      "dikit": 2137,
      "misteri": 2138,
      "disebut": 2139,
      "kendala": 2140,
      "policy": 2141,
      "tampilan": 2142,
      "ganggu": 2143,
      "tambahan": 2144,
      "tunai": 2145,
      "karir": 2146,
      "watir": 2147,
      "bahagia": 2148,
      "variasi": 2149,
      "sederhana": 2150,
      "miliar": 2151,
      "kepuasan": 2152,
      "verifikasi": 2153,
      "khawatir": 2154,
      "tombol": 2155,
      "caishen": 2156,
      "modern": 2157,
      "privacy": 2158,
      "petualangan": 2159,
      "bm": 2160,
      "bing": 2161,
      "batan": 2162,
      "cm": 2163,
      "cat": 2164,
      "cut": 2165,
      "cim": 2166,
      "ds": 2167,
      "deng": 2168,
      "easy": 2169,
      "hero": 2170,
      "kip": 2171,
      "let": 2172,
      "last": 2173,
      "masi": 2174,
      "mpo": 2175,
      "murah": 2176,
      "ous": 2177,
      "opus": 2178,
      "pla": 2179,
      "rend": 2180,
      "rome": 2181,
      "sv": 2182,
      "susah": 2183,
      "tk": 2184,
      "tamat": 2185,
      "wu": 2186,
      "yog": 2187,
      "inf": 2188,
      "enangan": 2189,
      "arang": 2190,
      "arti": 2191,
      "aset": 2192,
      "amer": 2193,
      "ahan": 2194,
      "ahui": 2195,
      "emot": 2196,
      "dist": 2197,
      "dipilih": 2198,
      "dimainkan": 2199,
      "dijamin": 2200,
      "diberikan": 2201,
      "element": 2202,
      "menur": 2203,
      "mendaftar": 2204,
      "iklan": 2205,
      "terkem": 2206,
      "tertinggi": 2207,
      "terkait": 2208,
      "ese": 2209,
      "laim": 2210,
      "mabar": 2211,
      "inginkan": 2212,
      "liga": 2213,
      "life": 2214,
      "pertim": 2215,
      "ura": 2216,
      "urn": 2217,
      "prak": 2218,
      "gambar": 2219,
      "sebanyak": 2220,
      "tid": 2221,
      "memungkin": 2222,
      "dai": 2223,
      "daerah": 2224,
      "raih": 2225,
      "eks": 2226,
      "post": 2227,
      "tujuan": 2228,
      "playtech": 2229,
      "uhi": 2230,
      "menghar": 2231,
      "tren": 2232,
      "bount": 2233,
      "code": 2234,
      "tarik": 2235,
      "ney": 2236,
      "koin": 2237,
      "melay": 2238,
      "dora": 2239,
      "tingkat": 2240,
      "ghty": 2241,
      "dapat": 2242,
      "komitmen": 2243,
      "minta": 2244,
      "tahan": 2245,
      "evo": 2246,
      "evol": 2247,
      "naga": 2248,
      "iphone": 2249,
      "bran": 2250,
      "hebat": 2251,
      "detail": 2252,
      "putar": 2253,
      "putaran": 2254,
      "bull": 2255,
      "voucher": 2256,
      "netent": 2257,
      "referensi": 2258,
      "streaming": 2259,
      "laporan": 2260,
      "dasikan": 2261,
      "crypt": 2262,
      "tribun": 2263,
      "premium": 2264,
      "elola": 2265,
      "bekerja": 2266,
      "menemukan": 2267,
      "spesial": 2268,
      "treasure": 2269,
      "virtual": 2270,
      "kangen": 2271,
      "operasi": 2272,
      "manusia": 2273,
      "profesional": 2274,
      "lusif": 2275,
      "sungguh": 2276,
      "rekomendasi": 2277,
      "pihak": 2278,
      "perbankan": 2279,
      "issue": 2280,
      "cimb": 2281,
      "terkemuka": 2282,
      "memungkinkan": 2283,
      "bounty": 2284,
      "ae": 2285,
      "bn": 2286,
      "bti": 2287,
      "dney": 2288,
      "eduk": 2289,
      "fan": 2290,
      "fri": 2291,
      "fili": 2292,
      "gy": 2293,
      "gor": 2294,
      "his": 2295,
      "hunt": 2296,
      "io": 2297,
      "jek": 2298,
      "kw": 2299,
      "kag": 2300,
      "katan": 2301,
      "mc": 2302,
      "mm": 2303,
      "mus": 2304,
      "mim": 2305,
      "non": 2306,
      "number": 2307,
      "namanya": 2308,
      "opat": 2309,
      "pik": 2310,
      "pek": 2311,
      "pindah": 2312,
      "plis": 2313,
      "rat": 2314,
      "rsg": 2315,
      "sat": 2316,
      "tut": 2317,
      "tha": 2318,
      "vs": 2319,
      "wallet": 2320,
      "xmas": 2321,
      "anjir": 2322,
      "erti": 2323,
      "aris": 2324,
      "alo": 2325,
      "alkan": 2326,
      "aha": 2327,
      "ema": 2328,
      "empa": 2329,
      "disa": 2330,
      "disc": 2331,
      "dikenal": 2332,
      "ditawarkan": 2333,
      "siber": 2334,
      "elit": 2335,
      "menjamin": 2336,
      "tert": 2337,
      "terdaftar": 2338,
      "terian": 2339,
      "terhubung": 2340,
      "other": 2341,
      "berupa": 2342,
      "berapapun": 2343,
      "esai": 2344,
      "mad": 2345,
      "macam": 2346,
      "lisensi": 2347,
      "bangga": 2348,
      "gaman": 2349,
      "pentas": 2350,
      "pendek": 2351,
      "keban": 2352,
      "kepala": 2353,
      "bandi": 2354,
      "banner": 2355,
      "bandung": 2356,
      "sto": 2357,
      "stand": 2358,
      "staf": 2359,
      "stop": 2360,
      "leee": 2361,
      "big": 2362,
      "bir": 2363,
      "tua": 2364,
      "ational": 2365,
      "wkw": 2366,
      "selesai": 2367,
      "cho": 2368,
      "char": 2369,
      "barang": 2370,
      "spini": 2371,
      "linked": 2372,
      "mengalami": 2373,
      "pemu": 2374,
      "pember": 2375,
      "kau": 2376,
      "adem": 2377,
      "yakarta": 2378,
      "jualan": 2379,
      "puter": 2380,
      "produ": 2381,
      "ketik": 2382,
      "vious": 2383,
      "thin": 2384,
      "restu": 2385,
      "img": 2386,
      "pulang": 2387,
      "indonesi": 2388,
      "wealth": 2389,
      "hour": 2390,
      "house": 2391,
      "tinggal": 2392,
      "menyala": 2393,
      "potongan": 2394,
      "versi": 2395,
      "kominfo": 2396,
      "gunung": 2397,
      "antung": 2398,
      "plus": 2399,
      "sydney": 2400,
      "jutaan": 2401,
      "kemenkum": 2402,
      "kementerian": 2403,
      "naik": 2404,
      "misi": 2405,
      "mighty": 2406,
      "fisi": 2407,
      "acol": 2408,
      "nilai": 2409,
      "kocakk": 2410,
      "brol": 2411,
      "internet": 2412,
      "pahami": 2413,
      "tanah": 2414,
      "ature": 2415,
      "italy": 2416,
      "jawaban": 2417,
      "rist": 2418,
      "ramah": 2419,
      "lapor": 2420,
      "presi": 2421,
      "prefer": 2422,
      "previous": 2423,
      "endingnya": 2424,
      "work": 2425,
      "profil": 2426,
      "odds": 2427,
      "bagikan": 2428,
      "bintang": 2429,
      "missy": 2430,
      "benerbener": 2431,
      "partner": 2432,
      "jurnal": 2433,
      "hadirkan": 2434,
      "agihan": 2435,
      "person": 2436,
      "memulai": 2437,
      "hahaha": 2438,
      "kunj": 2439,
      "huggy": 2440,
      "kasian": 2441,
      "about": 2442,
      "kripto": 2443,
      "publik": 2444,
      "macaudewa": 2445,
      "hilang": 2446,
      "enix": 2447,
      "integrasi": 2448,
      "canggih": 2449,
      "cleopat": 2450,
      "film": 2451,
      "grafik": 2452,
      "ashion": 2453,
      "lngsg": 2454,
      "sertifikasi": 2455,
      "phoenix": 2456,
      "gangguan": 2457,
      "yogyakarta": 2458,
      "melayani": 2459,
      "empaction": 2460,
      "pentaslot": 2461,
      "spinix": 2462,
      "product": 2463,
      "ada": 2464,
      "abur": 2465,
      "bsi": 2466,
      "bus": 2467,
      "bli": 2468,
      "bum": 2469,
      "cg": 2470,
      "cs": 2471,
      "cua": 2472,
      "dg": 2473,
      "ef": 2474,
      "efisi": 2475,
      "fest": 2476,
      "gok": 2477,
      "gala": 2478,
      "halaman": 2479,
      "ick": 2480,
      "jati": 2481,
      "jud": 2482,
      "kak": 2483,
      "klaim": 2484,
      "land": 2485,
      "lakukan": 2486,
      "lali": 2487,
      "more": 2488,
      "oter": 2489,
      "ola": 2490,
      "obrol": 2491,
      "rb": 2492,
      "rang": 2493,
      "sbo": 2494,
      "squ": 2495,
      "shar": 2496,
      "tx": 2497,
      "tenang": 2498,
      "uji": 2499,
      "wap": 2500,
      "wing": 2501,
      "wind": 2502,
      "wih": 2503,
      "wcb": 2504,
      "any": 2505,
      "erade": 2506,
      "insi": 2507,
      "ener": 2508,
      "atnya": 2509,
      "angkat": 2510,
      "alam": 2511,
      "alasan": 2512,
      "altern": 2513,
      "akadem": 2514,
      "ahuan": 2515,
      "emper": 2516,
      "diban": 2517,
      "dipercaya": 2518,
      "digunakan": 2519,
      "diakses": 2520,
      "didukung": 2521,
      "dibawah": 2522,
      "diff": 2523,
      "diproses": 2524,
      "unya": 2525,
      "unde": 2526,
      "sis": 2527,
      "silah": 2528,
      "elu": 2529,
      "org": 2530,
      "menam": 2531,
      "mening": 2532,
      "mendasikan": 2533,
      "iksa": 2534,
      "tercepat": 2535,
      "otak": 2536,
      "apak": 2537,
      "bert": 2538,
      "berat": 2539,
      "berkualitas": 2540,
      "berarti": 2541,
      "espin": 2542,
      "liv": 2543,
      "libur": 2544,
      "perl": 2545,
      "perkembang": 2546,
      "permata": 2547,
      "gad": 2548,
      "bangan": 2549,
      "bangsa": 2550,
      "ungkap": 2551,
      "press": 2552,
      "dey": 2553,
      "jago": 2554,
      "gamenya": 2555,
      "sepeda": 2556,
      "seputar": 2557,
      "tiang": 2558,
      "meman": 2559,
      "keku": 2560,
      "kepercaya": 2561,
      "ulet": 2562,
      "dag": 2563,
      "ragu": 2564,
      "ariah": 2565,
      "indust": 2566,
      "udara": 2567,
      "tag": 2568,
      "tadi": 2569,
      "spir": 2570,
      "spain": 2571,
      "menge": 2572,
      "mengh": 2573,
      "menghibur": 2574,
      "trol": 2575,
      "trust": 2576,
      "trending": 2577,
      "coid": 2578,
      "buah": 2579,
      "build": 2580,
      "bujang": 2581,
      "budaya": 2582,
      "kab": 2583,
      "kadang": 2584,
      "pengu": 2585,
      "pengumum": 2586,
      "masqu": 2587,
      "araoh": 2588,
      "musi": 2589,
      "ketagihan": 2590,
      "merah": 2591,
      "merch": 2592,
      "mereko": 2593,
      "viet": 2594,
      "this": 2595,
      "anding": 2596,
      "imin": 2597,
      "moment": 2598,
      "fair": 2599,
      "good": 2600,
      "teori": 2601,
      "pasar": 2602,
      "wedey": 2603,
      "menyel": 2604,
      "belak": 2605,
      "potensi": 2606,
      "nyesel": 2607,
      "kompas": 2608,
      "kompet": 2609,
      "kombin": 2610,
      "quick": 2611,
      "syariah": 2612,
      "footer": 2613,
      "pinjaman": 2614,
      "acti": 2615,
      "totem": 2616,
      "kira": 2617,
      "kirim": 2618,
      "card": 2619,
      "putusan": 2620,
      "condition": 2621,
      "dark": 2622,
      "march": 2623,
      "takabur": 2624,
      "blok": 2625,
      "paham": 2626,
      "skill": 2627,
      "smil": 2628,
      "final": 2629,
      "club": 2630,
      "ward": 2631,
      "match": 2632,
      "blackjack": 2633,
      "jarang": 2634,
      "investor": 2635,
      "jumat": 2636,
      "laptop": 2637,
      "pharaoh": 2638,
      "dasar": 2639,
      "ribusi": 2640,
      "jaminan": 2641,
      "wib": 2642,
      "sumber": 2643,
      "berada": 2644,
      "tenis": 2645,
      "point": 2646,
      "name": 2647,
      "overthin": 2648,
      "tengah": 2649,
      "tenggara": 2650,
      "gener": 2651,
      "manfaatkan": 2652,
      "absen": 2653,
      "donasi": 2654,
      "kurang": 2655,
      "gates": 2656,
      "koleksi": 2657,
      "ujung": 2658,
      "doku": 2659,
      "guru": 2660,
      "pirate": 2661,
      "anggota": 2662,
      "httpsww": 2663,
      "bappe": 2664,
      "tukar": 2665,
      "singapore": 2666,
      "full": 2667,
      "jdb": 2668,
      "navigasi": 2669,
      "bentuk": 2670,
      "tumbuh": 2671,
      "elemental": 2672,
      "praktis": 2673,
      "menghargai": 2674,
      "friend": 2675,
      "kaget": 2676,
      "katanya": 2677,
      "mimpi": 2678,
      "stock": 2679,
      "linkedin": 2680,
      "gokil": 2681,
      "alternatif": 2682,
      "emperor": 2683,
      "silahkan": 2684,
      "perkembangan": 2685,
      "kekuatan": 2686,
      "kepercayaan": 2687,
      "industri": 2688,
      "pengumuman": 2689,
      "masquerade": 2690,
      "merekomendasikan": 2691,
      "kombinasi": 2692,
      "overthinking": 2693,
      "adi": 2694,
      "aga": 2695,
      "ace": 2696,
      "bd": 2697,
      "bong": 2698,
      "bungan": 2699,
      "bund": 2700,
      "cli": 2701,
      "cand": 2702,
      "cana": 2703,
      "dv": 2704,
      "dakan": 2705,
      "ear": 2706,
      "ebet": 2707,
      "edit": 2708,
      "fant": 2709,
      "fusi": 2710,
      "gb": 2711,
      "ganan": 2712,
      "ime": 2713,
      "jasa": 2714,
      "jarkan": 2715,
      "kul": 2716,
      "kid": 2717,
      "ler": 2718,
      "lel": 2719,
      "malu": 2720,
      "milik": 2721,
      "nan": 2722,
      "nga": 2723,
      "nia": 2724,
      "national": 2725,
      "pasi": 2726,
      "sor": 2727,
      "sud": 2728,
      "sana": 2729,
      "tb": 2730,
      "tes": 2731,
      "tle": 2732,
      "ug": 2733,
      "vil": 2734,
      "wuj": 2735,
      "xl": 2736,
      "zon": 2737,
      "ank": 2738,
      "ann": 2739,
      "anom": 2740,
      "ance": 2741,
      "eruan": 2742,
      "ink": 2743,
      "inv": 2744,
      "enkrip": 2745,
      "ary": 2746,
      "atuh": 2747,
      "atua": 2748,
      "ason": 2749,
      "asanya": 2750,
      "angin": 2751,
      "ahli": 2752,
      "emen": 2753,
      "diman": 2754,
      "dimulai": 2755,
      "una": 2756,
      "unj": 2757,
      "unit": 2758,
      "sion": 2759,
      "menya": 2760,
      "mende": 2761,
      "menjaga": 2762,
      "ikat": 2763,
      "ternama": 2764,
      "berbagi": 2765,
      "berjalan": 2766,
      "berkomitmen": 2767,
      "etuju": 2768,
      "liput": 2769,
      "perhati": 2770,
      "banggg": 2771,
      "isti": 2772,
      "dev": 2773,
      "bad": 2774,
      "jauh": 2775,
      "sejar": 2776,
      "segala": 2777,
      "reward": 2778,
      "oke": 2779,
      "memak": 2780,
      "memut": 2781,
      "memenangkan": 2782,
      "keter": 2783,
      "kegi": 2784,
      "kehidup": 2785,
      "keputusan": 2786,
      "band": 2787,
      "ilan": 2788,
      "uman": 2789,
      "lee": 2790,
      "legac": 2791,
      "legal": 2792,
      "legend": 2793,
      "bijak": 2794,
      "biasanya": 2795,
      "indom": 2796,
      "popy": 2797,
      "selesaikan": 2798,
      "selanjut": 2799,
      "china": 2800,
      "christ": 2801,
      "bareng": 2802,
      "sabar": 2803,
      "tain": 2804,
      "iran": 2805,
      "mengen": 2806,
      "mengatur": 2807,
      "mengikuti": 2808,
      "menghadirkan": 2809,
      "kalangan": 2810,
      "bodo": 2811,
      "bosen": 2812,
      "board": 2813,
      "cocok": 2814,
      "kada": 2815,
      "kabur": 2816,
      "manut": 2817,
      "today": 2818,
      "master": 2819,
      "kola": 2820,
      "juara": 2821,
      "roulet": 2822,
      "iliasi": 2823,
      "jadilah": 2824,
      "impin": 2825,
      "awo": 2826,
      "icul": 2827,
      "beasiswa": 2828,
      "menyetuju": 2829,
      "langganan": 2830,
      "guy": 2831,
      "sesama": 2832,
      "daftarkan": 2833,
      "pria": 2834,
      "primera": 2835,
      "keratua": 2836,
      "plok": 2837,
      "kelola": 2838,
      "anggap": 2839,
      "pagi": 2840,
      "epay": 2841,
      "kesenangan": 2842,
      "keseruan": 2843,
      "harinya": 2844,
      "harapan": 2845,
      "high": 2846,
      "ipb": 2847,
      "foot": 2848,
      "hokibang": 2849,
      "parah": 2850,
      "sampah": 2851,
      "sambutan": 2852,
      "total": 2853,
      "afiliasi": 2854,
      "aaaa": 2855,
      "bali": 2856,
      "bru": 2857,
      "yeebet": 2858,
      "ahaha": 2859,
      "international": 2860,
      "menuju": 2861,
      "hercul": 2862,
      "uuu": 2863,
      "buku": 2864,
      "pilkada": 2865,
      "optim": 2866,
      "duli": 2867,
      "suren": 2868,
      "vidu": 2869,
      "origin": 2870,
      "dalam": 2871,
      "nomplok": 2872,
      "maxways": 2873,
      "feature": 2874,
      "ganti": 2875,
      "withdrawal": 2876,
      "cerita": 2877,
      "beneran": 2878,
      "turun": 2879,
      "danamon": 2880,
      "janji": 2881,
      "lewatkan": 2882,
      "lokasi": 2883,
      "ancing": 2884,
      "akibat": 2885,
      "otionime": 2886,
      "jatuh": 2887,
      "otomotif": 2888,
      "kumpul": 2889,
      "polisi": 2890,
      "axi": 2891,
      "individu": 2892,
      "sensasi": 2893,
      "sensasional": 2894,
      "register": 2895,
      "ongoing": 2896,
      "later": 2897,
      "panduan": 2898,
      "rush": 2899,
      "clusters": 2900,
      "genggaman": 2901,
      "pokok": 2902,
      "sekolah": 2903,
      "pelajari": 2904,
      "soalnya": 2905,
      "tantangan": 2906,
      "shopeepay": 2907,
      "lukas": 2908,
      "skywind": 2909,
      "cmd": 2910,
      "distribusi": 2911,
      "evolution": 2912,
      "edukasi": 2913,
      "kebanyakan": 2914,
      "bandito": 2915,
      "laliga": 2916,
      "insight": 2917,
      "dibanding": 2918,
      "difficul": 2919,
      "active": 2920,
      "bappebti": 2921,
      "friendly": 2922,
      "wujud": 2923,
      "enkripsi": 2924,
      "perhatian": 2925,
      "sejarah": 2926,
      "kegiatan": 2927,
      "kehidupan": 2928,
      "legacy": 2929,
      "selanjutnya": 2930,
      "christmas": 2931,
      "menyetujui": 2932,
      "hercules": 2933,
      "ao": 2934,
      "adil": 2935,
      "beng": 2936,
      "cen": 2937,
      "cag": 2938,
      "csport": 2939,
      "dc": 2940,
      "dest": 2941,
      "dream": 2942,
      "ec": 2943,
      "een": 2944,
      "epe": 2945,
      "egames": 2946,
      "far": 2947,
      "fung": 2948,
      "fasi": 2949,
      "fut": 2950,
      "fly": 2951,
      "fashion": 2952,
      "gp": 2953,
      "gah": 2954,
      "git": 2955,
      "gclub": 2956,
      "hk": 2957,
      "ire": 2958,
      "ibu": 2959,
      "jon": 2960,
      "jikan": 2961,
      "kg": 2962,
      "kil": 2963,
      "ld": 2964,
      "long": 2965,
      "less": 2966,
      "mang": 2967,
      "mek": 2968,
      "nas": 2969,
      "nek": 2970,
      "njir": 2971,
      "osport": 2972,
      "pap": 2973,
      "pid": 2974,
      "pag": 2975,
      "png": 2976,
      "ry": 2977,
      "sun": 2978,
      "ssi": 2979,
      "ster": 2980,
      "sma": 2981,
      "ssport": 2982,
      "smar": 2983,
      "ton": 2984,
      "tum": 2985,
      "tari": 2986,
      "uck": 2987,
      "ven": 2988,
      "west": 2989,
      "wsport": 2990,
      "xi": 2991,
      "xt": 2992,
      "yum": 2993,
      "yle": 2994,
      "ygg": 2995,
      "zu": 2996,
      "zom": 2997,
      "eri": 2998,
      "erta": 2999,
      "erto": 3000,
      "inal": 3001,
      "ena": 3002,
      "enuhi": 3003,
      "arin": 3004,
      "aten": 3005,
      "atasi": 3006,
      "asama": 3007,
      "asikan": 3008,
      "alf": 3009,
      "alir": 3010,
      "ahkan": 3011,
      "ahami": 3012,
      "eman": 3013,
      "emoney": 3014,
      "die": 3015,
      "digi": 3016,
      "direk": 3017,
      "sive": 3018,
      "menunggu": 3019,
      "ikum": 3020,
      "terbukti": 3021,
      "otoritas": 3022,
      "apo": 3023,
      "berkal": 3024,
      "beruntung": 3025,
      "berinvestasi": 3026,
      "bertanggung": 3027,
      "eta": 3028,
      "ester": 3029,
      "esti": 3030,
      "ingg": 3031,
      "lid": 3032,
      "lim": 3033,
      "lir": 3034,
      "peran": 3035,
      "perfor": 3036,
      "perlengkap": 3037,
      "perbeda": 3038,
      "peraturan": 3039,
      "perjal": 3040,
      "periksa": 3041,
      "iti": 3042,
      "prg": 3043,
      "prabo": 3044,
      "iseng": 3045,
      "isport": 3046,
      "deal": 3047,
      "sebaik": 3048,
      "seindonesia": 3049,
      "season": 3050,
      "recom": 3051,
      "regul": 3052,
      "review": 3053,
      "peni": 3054,
      "pener": 3055,
      "penelit": 3056,
      "memer": 3057,
      "memas": 3058,
      "memain": 3059,
      "membawa": 3060,
      "membangun": 3061,
      "memancing": 3062,
      "memenuhi": 3063,
      "memahami": 3064,
      "waji": 3065,
      "kecepat": 3066,
      "bandar": 3067,
      "ukur": 3068,
      "stu": 3069,
      "stat": 3070,
      "stri": 3071,
      "ribe": 3072,
      "riway": 3073,
      "lotto": 3074,
      "raya": 3075,
      "indungan": 3076,
      "eksp": 3077,
      "ektif": 3078,
      "eksk": 3079,
      "posi": 3080,
      "gimana": 3081,
      "tuhan": 3082,
      "tugas": 3083,
      "atilitas": 3084,
      "upaten": 3085,
      "chai": 3086,
      "chrome": 3087,
      "uding": 3088,
      "barat": 3089,
      "saf": 3090,
      "sadar": 3091,
      "spac": 3092,
      "mengem": 3093,
      "mengakses": 3094,
      "doang": 3095,
      "dodo": 3096,
      "vega": 3097,
      "box": 3098,
      "boongo": 3099,
      "buy": 3100,
      "kav": 3101,
      "tara": 3102,
      "taruh": 3103,
      "admin": 3104,
      "mewah": 3105,
      "pengem": 3106,
      "penggem": 3107,
      "pecinta": 3108,
      "muerto": 3109,
      "ketahui": 3110,
      "meres": 3111,
      "merek": 3112,
      "merce": 3113,
      "kemungkin": 3114,
      "anduan": 3115,
      "andingan": 3116,
      "puluhan": 3117,
      "awc": 3118,
      "tebak": 3119,
      "besok": 3120,
      "seneng": 3121,
      "senyum": 3122,
      "how": 3123,
      "allbet": 3124,
      "grup": 3125,
      "komsel": 3126,
      "komputer": 3127,
      "guna": 3128,
      "diaero": 3129,
      "ograf": 3130,
      "ppid": 3131,
      "sody": 3132,
      "iac": 3133,
      "commerce": 3134,
      "sumen": 3135,
      "pertumb": 3136,
      "pertandingan": 3137,
      "gedung": 3138,
      "keny": 3139,
      "pina": 3140,
      "edge": 3141,
      "telkomsel": 3142,
      "fisik": 3143,
      "alaikum": 3144,
      "portal": 3145,
      "koneksi": 3146,
      "konsep": 3147,
      "konsumen": 3148,
      "qqken": 3149,
      "payd": 3150,
      "carat": 3151,
      "heel": 3152,
      "kamera": 3153,
      "putus": 3154,
      "litan": 3155,
      "facewith": 3156,
      "homehotgam": 3157,
      "interactive": 3158,
      "takut": 3159,
      "here": 3160,
      "bakal": 3161,
      "hhh": 3162,
      "gelar": 3163,
      "buktikan": 3164,
      "kkk": 3165,
      "tiket": 3166,
      "fined": 3167,
      "cluding": 3168,
      "kecanduan": 3169,
      "warna": 3170,
      "piala": 3171,
      "streamer": 3172,
      "nominal": 3173,
      "riset": 3174,
      "lanjutin": 3175,
      "tokyo": 3176,
      "firefire": 3177,
      "sumpah": 3178,
      "jadinya": 3179,
      "kedok": 3180,
      "kedua": 3181,
      "teknik": 3182,
      "tanggal": 3183,
      "raffle": 3184,
      "cinema": 3185,
      "korban": 3186,
      "pesan": 3187,
      "nambah": 3188,
      "ancang": 3189,
      "dewadratuh": 3190,
      "absol": 3191,
      "freespin": 3192,
      "horde": 3193,
      "hormat": 3194,
      "rrq": 3195,
      "humas": 3196,
      "curren": 3197,
      "hitam": 3198,
      "hitungan": 3199,
      "butuhkan": 3200,
      "tampilkan": 3201,
      "responsif": 3202,
      "ketiduran": 3203,
      "kasihan": 3204,
      "sixsixsix": 3205,
      "volatilitas": 3206,
      "mengajarkan": 3207,
      "dirancang": 3208,
      "registrasi": 3209,
      "please": 3210,
      "handphone": 3211,
      "return": 3212,
      "dampak": 3213,
      "deliver": 3214,
      "jangkau": 3215,
      "saham": 3216,
      "baccarat": 3217,
      "muham": 3218,
      "wonder": 3219,
      "universitas": 3220,
      "risiko": 3221,
      "sultan": 3222,
      "rendah": 3223,
      "wuggy": 3224,
      "pertimbangkan": 3225,
      "tidur": 3226,
      "brando": 3227,
      "filipina": 3228,
      "pikir": 3229,
      "tertentu": 3230,
      "bumi": 3231,
      "obrolan": 3232,
      "anying": 3233,
      "undefined": 3234,
      "meninggal": 3235,
      "perlindungan": 3236,
      "kabupaten": 3237,
      "penguin": 3238,
      "musibah": 3239,
      "merchant": 3240,
      "fairplay": 3241,
      "candu": 3242,
      "fusion": 3243,
      "menyajikan": 3244,
      "liputan": 3245,
      "bodoh": 3246,
      "kolabor": 3247,
      "axiata": 3248,
      "perlengkapan": 3249,
      "perbedaan": 3250,
      "perjalanan": 3251,
      "prabowo": 3252,
      "memainkan": 3253,
      "kecepatan": 3254,
      "riwayat": 3255,
      "eksklusif": 3256,
      "spaceman": 3257,
      "penggemar": 3258,
      "kemungkinan": 3259,
      "pertumbuhan": 3260,
      "currency": 3261,
      "acak": 3262,
      "average": 3263,
      "bh": 3264,
      "batkan": 3265,
      "break": 3266,
      "cba": 3267,
      "cic": 3268,
      "cina": 3269,
      "cnn": 3270,
      "dama": 3271,
      "fl": 3272,
      "fli": 3273,
      "fum": 3274,
      "flo": 3275,
      "from": 3276,
      "gsoft": 3277,
      "hok": 3278,
      "japan": 3279,
      "jitu": 3280,
      "kl": 3281,
      "kn": 3282,
      "ksi": 3283,
      "kus": 3284,
      "kut": 3285,
      "kri": 3286,
      "klo": 3287,
      "kwkw": 3288,
      "lc": 3289,
      "lp": 3290,
      "mari": 3291,
      "mall": 3292,
      "miliki": 3293,
      "motionime": 3294,
      "nun": 3295,
      "nik": 3296,
      "not": 3297,
      "nunggu": 3298,
      "open": 3299,
      "obat": 3300,
      "pung": 3301,
      "plot": 3302,
      "pangan": 3303,
      "poly": 3304,
      "rak": 3305,
      "rem": 3306,
      "rol": 3307,
      "ruang": 3308,
      "rhap": 3309,
      "sok": 3310,
      "skin": 3311,
      "tit": 3312,
      "takan": 3313,
      "tata": 3314,
      "twis": 3315,
      "tentukan": 3316,
      "ulitan": 3317,
      "va": 3318,
      "vatif": 3319,
      "wat": 3320,
      "wok": 3321,
      "wala": 3322,
      "will": 3323,
      "wheel": 3324,
      "xen": 3325,
      "xtoto": 3326,
      "yan": 3327,
      "yat": 3328,
      "zer": 3329,
      "ansi": 3330,
      "ins": 3331,
      "inang": 3332,
      "inspir": 3333,
      "aret": 3334,
      "atakan": 3335,
      "ass": 3336,
      "asuran": 3337,
      "ale": 3338,
      "alamat": 3339,
      "amakan": 3340,
      "aking": 3341,
      "oni": 3342,
      "onya": 3343,
      "dikon": 3344,
      "dikasih": 3345,
      "dibayar": 3346,
      "sip": 3347,
      "sir": 3348,
      "mena": 3349,
      "menup": 3350,
      "mending": 3351,
      "menteri": 3352,
      "menjelajahi": 3353,
      "mendalam": 3354,
      "terbanyak": 3355,
      "terkuat": 3356,
      "terpopular": 3357,
      "terintegrasi": 3358,
      "terjangkau": 3359,
      "yapp": 3360,
      "berizin": 3361,
      "etik": 3362,
      "madi": 3363,
      "macet": 3364,
      "usd": 3365,
      "liah": 3366,
      "lipat": 3367,
      "lite": 3368,
      "livest": 3369,
      "pergi": 3370,
      "perset": 3371,
      "perangkat": 3372,
      "itor": 3373,
      "itif": 3374,
      "uri": 3375,
      "prest": 3376,
      "ist": 3377,
      "isra": 3378,
      "istis": 3379,
      "deh": 3380,
      "baikan": 3381,
      "sedikit": 3382,
      "sejati": 3383,
      "sebuah": 3384,
      "uth": 3385,
      "utup": 3386,
      "utara": 3387,
      "tib": 3388,
      "tic": 3389,
      "til": 3390,
      "till": 3391,
      "timeli": 3392,
      "rebon": 3393,
      "reku": 3394,
      "rekor": 3395,
      "request": 3396,
      "pengi": 3397,
      "pendap": 3398,
      "pencet": 3399,
      "meme": 3400,
      "wai": 3401,
      "wajah": 3402,
      "kek": 3403,
      "kejut": 3404,
      "kebiasa": 3405,
      "keanggot": 3406,
      "ile": 3407,
      "ilah": 3408,
      "streak": 3409,
      "staking": 3410,
      "ribet": 3411,
      "lotre": 3412,
      "level": 3413,
      "raan": 3414,
      "bila": 3415,
      "biru": 3416,
      "bidang": 3417,
      "bios": 3418,
      "indari": 3419,
      "eka": 3420,
      "giant": 3421,
      "atih": 3422,
      "udly": 3423,
      "lock": 3424,
      "love": 3425,
      "bara": 3426,
      "sawer": 3427,
      "saverage": 3428,
      "tabl": 3429,
      "table": 3430,
      "lintas": 3431,
      "mengundang": 3432,
      "mengasyik": 3433,
      "mengelola": 3434,
      "agri": 3435,
      "dosen": 3436,
      "bosan": 3437,
      "boss": 3438,
      "bogor": 3439,
      "cod": 3440,
      "cos": 3441,
      "cover": 3442,
      "cooki": 3443,
      "coblo": 3444,
      "pembel": 3445,
      "kad": 3446,
      "kaca": 3447,
      "mania": 3448,
      "penghasi": 3449,
      "sero": 3450,
      "servis": 3451,
      "masing": 3452,
      "patu": 3453,
      "casin": 3454,
      "udahoki": 3455,
      "barui": 3456,
      "neg": 3457,
      "atau": 3458,
      "kop": 3459,
      "juma": 3460,
      "muda": 3461,
      "keti": 3462,
      "ketat": 3463,
      "ketingg": 3464,
      "vidio": 3465,
      "noo": 3466,
      "thread": 3467,
      "ayang": 3468,
      "alahan": 3469,
      "ngga": 3470,
      "awan": 3471,
      "award": 3472,
      "enture": 3473,
      "ted": 3474,
      "tebal": 3475,
      "pasaran": 3476,
      "aranya": 3477,
      "seni": 3478,
      "pany": 3479,
      "banking": 3480,
      "komdigi": 3481,
      "minal": 3482,
      "bahas": 3483,
      "gerak": 3484,
      "kuliah": 3485,
      "diaa": 3486,
      "bene": 3487,
      "kerj": 3488,
      "keru": 3489,
      "antikan": 3490,
      "company": 3491,
      "sulit": 3492,
      "anggung": 3493,
      "mahasiswa": 3494,
      "ninjaa": 3495,
      "scan": 3496,
      "pertam": 3497,
      "kesulitan": 3498,
      "kesalahan": 3499,
      "apps": 3500,
      "hian": 3501,
      "nagih": 3502,
      "cobain": 3503,
      "fox": 3504,
      "aanmu": 3505,
      "timur": 3506,
      "menjadikan": 3507,
      "samsung": 3508,
      "astis": 3509,
      "bisa": 3510,
      "masukkan": 3511,
      "santai": 3512,
      "katt": 3513,
      "brand": 3514,
      "brother": 3515,
      "fishsub": 3516,
      "health": 3517,
      "disaran": 3518,
      "putih": 3519,
      "kapanpun": 3520,
      "sale": 3521,
      "wanita": 3522,
      "usaha": 3523,
      "gemari": 3524,
      "infohubungi": 3525,
      "blm": 3526,
      "topup": 3527,
      "woy": 3528,
      "cirebon": 3529,
      "skype": 3530,
      "jebak": 3531,
      "shop": 3532,
      "joget": 3533,
      "exc": 3534,
      "ext": 3535,
      "experi": 3536,
      "clash": 3537,
      "jpnya": 3538,
      "doeyy": 3539,
      "network": 3540,
      "matemat": 3541,
      "kingdom": 3542,
      "rame": 3543,
      "wkwkwkw": 3544,
      "jaringan": 3545,
      "idnslot": 3546,
      "world": 3547,
      "komentar": 3548,
      "trading": 3549,
      "realistis": 3550,
      "brid": 3551,
      "ciptakan": 3552,
      "hallo": 3553,
      "firefox": 3554,
      "instan": 3555,
      "instit": 3556,
      "adventure": 3557,
      "hargaan": 3558,
      "pragmaticplaymahjong": 3559,
      "jurus": 3560,
      "oura": 3561,
      "tetep": 3562,
      "pentingnya": 3563,
      "desain": 3564,
      "korup": 3565,
      "rasanya": 3566,
      "llll": 3567,
      "ooo": 3568,
      "lembaga": 3569,
      "megaways": 3570,
      "jatinang": 3571,
      "username": 3572,
      "userfriendly": 3573,
      "kembangkan": 3574,
      "kendaraan": 3575,
      "hybrid": 3576,
      "wisata": 3577,
      "relax": 3578,
      "dokter": 3579,
      "rahasia": 3580,
      "antarmuka": 3581,
      "cape": 3582,
      "fakta": 3583,
      "karier": 3584,
      "taiwan": 3585,
      "great": 3586,
      "mingguan": 3587,
      "rusak": 3588,
      "ingfacewith": 3589,
      "first": 3590,
      "firmasi": 3591,
      "visual": 3592,
      "berlipat": 3593,
      "kamiinfo": 3594,
      "calon": 3595,
      "gadaan": 3596,
      "bacid": 3597,
      "serie": 3598,
      "group": 3599,
      "university": 3600,
      "mengisi": 3601,
      "terlupakan": 3602,
      "dinikmati": 3603,
      "grab": 3604,
      "subscribe": 3605,
      "career": 3606,
      "svg": 3607,
      "perbankanpusat": 3608,
      "aeo": 3609,
      "histor": 3610,
      "standar": 3611,
      "pemula": 3612,
      "preferensi": 3613,
      "previousnext": 3614,
      "cleopatra": 3615,
      "cuaan": 3616,
      "judol": 3617,
      "share": 3618,
      "energi": 3619,
      "dagangan": 3620,
      "menyelesaikan": 3621,
      "belakang": 3622,
      "generator": 3623,
      "fantastis": 3624,
      "anomali": 3625,
      "mended": 3626,
      "indomaret": 3627,
      "awoak": 3628,
      "football": 3629,
      "original": 3630,
      "pokoknya": 3631,
      "dibandingkan": 3632,
      "destin": 3633,
      "fungsi": 3634,
      "pagcor": 3635,
      "performa": 3636,
      "recommended": 3637,
      "regulasi": 3638,
      "penipuan": 3639,
      "penerima": 3640,
      "wajib": 3641,
      "strimer": 3642,
      "positif": 3643,
      "muertos": 3644,
      "kenyamanan": 3645,
      "kedokteran": 3646,
      "absolute": 3647,
      "delivery": 3648,
      "kolaborasi": 3649,
      "kriminal": 3650,
      "rhapsody": 3651,
      "twist": 3652,
      "walaupun": 3653,
      "asuransi": 3654,
      "livestream": 3655,
      "prestasi": 3656,
      "israel": 3657,
      "pendapatan": 3658,
      "kebiasaan": 3659,
      "bioskop": 3660,
      "udlycry": 3661,
      "tablet": 3662,
      "mengasyikkan": 3663,
      "cookie": 3664,
      "pembelian": 3665,
      "penghasilan": 3666,
      "ketinggalan": 3667,
      "experience": 3668,
      "matematika": 3669,
      "adik": 3670,
      "aura": 3671,
      "bc": 3672,
      "bam": 3673,
      "bra": 3674,
      "buh": 3675,
      "bsport": 3676,
      "batu": 3677,
      "bjir": 3678,
      "basis": 3679,
      "cem": 3680,
      "cing": 3681,
      "cup": 3682,
      "clo": 3683,
      "cont": 3684,
      "call": 3685,
      "cian": 3686,
      "cation": 3687,
      "categ": 3688,
      "cuman": 3689,
      "dm": 3690,
      "dak": 3691,
      "dari": 3692,
      "duh": 3693,
      "dress": 3694,
      "ever": 3695,
      "ebak": 3696,
      "ecommerce": 3697,
      "fur": 3698,
      "gd": 3699,
      "gl": 3700,
      "gil": 3701,
      "gantung": 3702,
      "hon": 3703,
      "ius": 3704,
      "jk": 3705,
      "jana": 3706,
      "jep": 3707,
      "jew": 3708,
      "jender": 3709,
      "jantung": 3710,
      "kim": 3711,
      "kita": 3712,
      "kaki": 3713,
      "lor": 3714,
      "ling": 3715,
      "lgi": 3716,
      "lho": 3717,
      "lindungi": 3718,
      "lingk": 3719,
      "mr": 3720,
      "mam": 3721,
      "mor": 3722,
      "mir": 3723,
      "mong": 3724,
      "nba": 3725,
      "nut": 3726,
      "nasa": 3727,
      "nusan": 3728,
      "ogi": 3729,
      "opel": 3730,
      "ps": 3731,
      "pis": 3732,
      "pup": 3733,
      "pong": 3734,
      "pamer": 3735,
      "pimpin": 3736,
      "qatar": 3737,
      "rap": 3738,
      "rok": 3739,
      "rama": 3740,
      "ratu": 3741,
      "spri": 3742,
      "shi": 3743,
      "sangka": 3744,
      "tasi": 3745,
      "tol": 3746,
      "tind": 3747,
      "tent": 3748,
      "tanya": 3749,
      "tinya": 3750,
      "type": 3751,
      "uari": 3752,
      "ujuan": 3753,
      "van": 3754,
      "vin": 3755,
      "ving": 3756,
      "wid": 3757,
      "wuhan": 3758,
      "windo": 3759,
      "yi": 3760,
      "yu": 3761,
      "yve": 3762,
      "ygr": 3763,
      "zeni": 3764,
      "andi": 3765,
      "anian": 3766,
      "eru": 3767,
      "infor": 3768,
      "arch": 3769,
      "arning": 3770,
      "atm": 3771,
      "assal": 3772,
      "angi": 3773,
      "alin": 3774,
      "alat": 3775,
      "alur": 3776,
      "alnya": 3777,
      "also": 3778,
      "alapak": 3779,
      "albert": 3780,
      "ame": 3781,
      "ampe": 3782,
      "akter": 3783,
      "empe": 3784,
      "emeh": 3785,
      "dibuat": 3786,
      "dipascol": 3787,
      "dipahami": 3788,
      "unan": 3789,
      "uncur": 3790,
      "sic": 3791,
      "sian": 3792,
      "sisa": 3793,
      "sikom": 3794,
      "elin": 3795,
      "elah": 3796,
      "ord": 3797,
      "oris": 3798,
      "organ": 3799,
      "menan": 3800,
      "meneng": 3801,
      "menonton": 3802,
      "menanti": 3803,
      "terdepan": 3804,
      "terdapat": 3805,
      "yap": 3806,
      "yaaa": 3807,
      "apar": 3808,
      "berasa": 3809,
      "berdiri": 3810,
      "berakhir": 3811,
      "bersih": 3812,
      "berisi": 3813,
      "berlanjut": 3814,
      "berasal": 3815,
      "beroperasi": 3816,
      "bersertifikasi": 3817,
      "berlangganan": 3818,
      "bertaruh": 3819,
      "berguna": 3820,
      "berbasis": 3821,
      "esmil": 3822,
      "laza": 3823,
      "usul": 3824,
      "usai": 3825,
      "lima": 3826,
      "liver": 3827,
      "pering": 3828,
      "perti": 3829,
      "peraw": 3830,
      "perpus": 3831,
      "persyar": 3832,
      "persero": 3833,
      "perdagangan": 3834,
      "gaes": 3835,
      "itb": 3836,
      "itahuan": 3837,
      "asil": 3838,
      "preh": 3839,
      "ise": 3840,
      "iso": 3841,
      "istik": 3842,
      "islam": 3843,
      "dekat": 3844,
      "debit": 3845,
      "jabar": 3846,
      "gama": 3847,
      "seke": 3848,
      "seka": 3849,
      "sebel": 3850,
      "sebesar": 3851,
      "sediakan": 3852,
      "segar": 3853,
      "sejumlah": 3854,
      "sepanjang": 3855,
      "sepatu": 3856,
      "search": 3857,
      "nyawer": 3858,
      "mainten": 3859,
      "resi": 3860,
      "reput": 3861,
      "oko": 3862,
      "penca": 3863,
      "pengad": 3864,
      "penjaminan": 3865,
      "pengadaan": 3866,
      "kebangga": 3867,
      "ultas": 3868,
      "banh": 3869,
      "banjir": 3870,
      "ilu": 3871,
      "iler": 3872,
      "iland": 3873,
      "uku": 3874,
      "ukul": 3875,
      "stal": 3876,
      "step": 3877,
      "story": 3878,
      "rid": 3879,
      "dax": 3880,
      "umnya": 3881,
      "umkm": 3882,
      "gameplay": 3883,
      "lepas": 3884,
      "bio": 3885,
      "bilit": 3886,
      "pola": 3887,
      "gim": 3888,
      "plays": 3889,
      "playpragmatic": 3890,
      "playstore": 3891,
      "atiba": 3892,
      "upload": 3893,
      "che": 3894,
      "chang": 3895,
      "chester": 3896,
      "barkan": 3897,
      "saba": 3898,
      "said": 3899,
      "saatnya": 3900,
      "tabungan": 3901,
      "iring": 3902,
      "menghilang": 3903,
      "truck": 3904,
      "ceh": 3905,
      "cep": 3906,
      "agara": 3907,
      "dow": 3908,
      "ofire": 3909,
      "veteran": 3910,
      "cair": 3911,
      "buang": 3912,
      "pembeli": 3913,
      "pemilu": 3914,
      "kay": 3915,
      "kabar": 3916,
      "mani": 3917,
      "manta": 3918,
      "manchester": 3919,
      "endstream": 3920,
      "engine": 3921,
      "lukan": 3922,
      "meja": 3923,
      "medan": 3924,
      "pengelola": 3925,
      "penghargaan": 3926,
      "inovatif": 3927,
      "mask": 3928,
      "massive": 3929,
      "pedom": 3930,
      "atain": 3931,
      "kosm": 3932,
      "jukan": 3933,
      "process": 3934,
      "muter": 3935,
      "merde": 3936,
      "meriah": 3937,
      "kemu": 3938,
      "kemew": 3939,
      "kemarin": 3940,
      "vie": 3941,
      "vibe": 3942,
      "that": 3943,
      "respe": 3944,
      "resour": 3945,
      "apaan": 3946,
      "imbang": 3947,
      "imsport": 3948,
      "ngel": 3949,
      "ngerti": 3950,
      "ngatain": 3951,
      "casinohot": 3952,
      "meled": 3953,
      "pusing": 3954,
      "memberi": 3955,
      "membernya": 3956,
      "betah": 3957,
      "betul": 3958,
      "dorong": 3959,
      "hobi": 3960,
      "tingk": 3961,
      "buru": 3962,
      "promonya": 3963,
      "nyam": 3964,
      "kompreh": 3965,
      "mini": 3966,
      "ggg": 3967,
      "format": 3968,
      "bahan": 3969,
      "karya": 3970,
      "karakter": 3971,
      "inisi": 3972,
      "ques": 3973,
      "antas": 3974,
      "antik": 3975,
      "bayi": 3976,
      "make": 3977,
      "makasi": 3978,
      "maksud": 3979,
      "sci": 3980,
      "scre": 3981,
      "scbet": 3982,
      "evan": 3983,
      "lainlain": 3984,
      "pindai": 3985,
      "laimer": 3986,
      "bilang": 3987,
      "edu": 3988,
      "lengkapi": 3989,
      "qqd": 3990,
      "qqapp": 3991,
      "qqtha": 3992,
      "qqviet": 3993,
      "under": 3994,
      "setuju": 3995,
      "hasilkan": 3996,
      "kiri": 3997,
      "night": 3998,
      "kocakkk": 3999,
      "aff": 4000,
      "gateway": 4001,
      "hehe": 4002,
      "heart": 4003,
      "peta": 4004,
      "petir": 4005,
      "year": 4006,
      "mentasi": 4007,
      "batalkan": 4008,
      "male": 4009,
      "putri": 4010,
      "conne": 4011,
      "ews": 4012,
      "salam": 4013,
      "saling": 4014,
      "interaksi": 4015,
      "ctor": 4016,
      "maret": 4017,
      "meski": 4018,
      "meskip": 4019,
      "takaan": 4020,
      "uuuu": 4021,
      "hhhh": 4022,
      "menyebab": 4023,
      "aksesoris": 4024,
      "bukalapak": 4025,
      "pilkan": 4026,
      "ponsel": 4027,
      "hampir": 4028,
      "hambatan": 4029,
      "excluding": 4030,
      "garagara": 4031,
      "surat": 4032,
      "kecantikan": 4033,
      "kasus": 4034,
      "warning": 4035,
      "siapkan": 4036,
      "jelek": 4037,
      "netfli": 4038,
      "piggy": 4039,
      "adek": 4040,
      "ensif": 4041,
      "bunuh": 4042,
      "hatihati": 4043,
      "predik": 4044,
      "jiwa": 4045,
      "lanjutkan": 4046,
      "ganda": 4047,
      "profit": 4048,
      "scattermahjong": 4049,
      "travel": 4050,
      "tradisi": 4051,
      "realtime": 4052,
      "dayakan": 4053,
      "perusahaanperusahaan": 4054,
      "cerdas": 4055,
      "desa": 4056,
      "peserta": 4057,
      "mantul": 4058,
      "respons": 4059,
      "iii": 4060,
      "kisah": 4061,
      "purna": 4062,
      "simpan": 4063,
      "simbol": 4064,
      "redaksi": 4065,
      "personal": 4066,
      "blox": 4067,
      "hahahahah": 4068,
      "month": 4069,
      "bocor": 4070,
      "entertain": 4071,
      "komunikasi": 4072,
      "hyper": 4073,
      "kolom": 4074,
      "sweat": 4075,
      "jahat": 4076,
      "relevan": 4077,
      "waspa": 4078,
      "undangundang": 4079,
      "wordpress": 4080,
      "qrplays": 4081,
      "yyy": 4082,
      "terms": 4083,
      "bangunan": 4084,
      "langkahlangkah": 4085,
      "fakultas": 4086,
      "viral": 4087,
      "sikologi": 4088,
      "riches": 4089,
      "myth": 4090,
      "indodax": 4091,
      "manfaatnya": 4092,
      "grafis": 4093,
      "bapak": 4094,
      "fleksi": 4095,
      "rintangan": 4096,
      "amualaikum": 4097,
      "mengirim": 4098,
      "shopee": 4099,
      "blue": 4100,
      "bluesmil": 4101,
      "amenawarkan": 4102,
      "bingung": 4103,
      "dengar": 4104,
      "kipli": 4105,
      "letter": 4106,
      "playa": 4107,
      "esepeda": 4108,
      "thailand": 4109,
      "disabilitas": 4110,
      "discord": 4111,
      "pemberitahuan": 4112,
      "kemenkumham": 4113,
      "jawabannya": 4114,
      "presiden": 4115,
      "kunjungan": 4116,
      "efektif": 4117,
      "efisien": 4118,
      "akademik": 4119,
      "menampilkan": 4120,
      "livenya": 4121,
      "andingi": 4122,
      "darksystem": 4123,
      "httpswww": 4124,
      "dvantplay": 4125,
      "editor": 4126,
      "kidul": 4127,
      "villa": 4128,
      "dimanapun": 4129,
      "develo": 4130,
      "roulete": 4131,
      "registered": 4132,
      "difficult": 4133,
      "wujudkan": 4134,
      "epep": 4135,
      "fasilitas": 4136,
      "pidana": 4137,
      "sebaiknya": 4138,
      "memerlukan": 4139,
      "studio": 4140,
      "safari": 4141,
      "mengembangkan": 4142,
      "ografis": 4143,
      "iacbet": 4144,
      "qqkeno": 4145,
      "cicilan": 4146,
      "mario": 4147,
      "xendit": 4148,
      "yapping": 4149,
      "persetujuan": 4150,
      "tibatiba": 4151,
      "kejutan": 4152,
      "negatif": 4153,
      "jumawa": 4154,
      "benefit": 4155,
      "disarankan": 4156,
      "jatinangor": 4157,
      "history": 4158,
      "category": 4159,
      "jewel": 4160,
      "jenderal": 4161,
      "lingkungan": 4162,
      "nasabah": 4163,
      "ogie": 4164,
      "spribe": 4165,
      "window": 4166,
      "zenius": 4167,
      "informati": 4168,
      "assalamualaikum": 4169,
      "empection": 4170,
      "lazada": 4171,
      "liverpool": 4172,
      "perawatan": 4173,
      "perpustakaan": 4174,
      "persyaratan": 4175,
      "maintenance": 4176,
      "reputasi": 4177,
      "pengaduan": 4178,
      "kebanggaan": 4179,
      "pedoman": 4180,
      "kemewahan": 4181,
      "resource": 4182,
      "meledak": 4183,
      "komprehensif": 4184,
      "qqthai": 4185,
      "meskipun": 4186,
      "menyebabkan": 4187,
      "netflix": 4188,
      "prediksi": 4189,
      "aq": 4190,
      "ais": 4191,
      "aimin": 4192,
      "bom": 4193,
      "cir": 4194,
      "cpn": 4195,
      "dn": 4196,
      "dpr": 4197,
      "dri": 4198,
      "dud": 4199,
      "dbe": 4200,
      "dki": 4201,
      "duanya": 4202,
      "ealin": 4203,
      "fb": 4204,
      "fr": 4205,
      "fal": 4206,
      "fik": 4207,
      "fee": 4208,
      "fran": 4209,
      "festi": 4210,
      "got": 4211,
      "gap": 4212,
      "ges": 4213,
      "gent": 4214,
      "glucky": 4215,
      "gitu": 4216,
      "hah": 4217,
      "hung": 4218,
      "hut": 4219,
      "had": 4220,
      "haha": 4221,
      "ig": 4222,
      "iya": 4223,
      "ice": 4224,
      "igua": 4225,
      "jol": 4226,
      "jdih": 4227,
      "kind": 4228,
      "kmal": 4229,
      "kore": 4230,
      "ktop": 4231,
      "khen": 4232,
      "lt": 4233,
      "len": 4234,
      "lar": 4235,
      "lon": 4236,
      "lum": 4237,
      "llah": 4238,
      "mk": 4239,
      "mama": 4240,
      "mund": 4241,
      "nor": 4242,
      "nes": 4243,
      "nus": 4244,
      "nur": 4245,
      "narik": 4246,
      "notif": 4247,
      "pk": 4248,
      "pari": 4249,
      "pati": 4250,
      "pip": 4251,
      "psikologi": 4252,
      "rk": 4253,
      "rl": 4254,
      "ror": 4255,
      "rit": 4256,
      "rut": 4257,
      "rata": 4258,
      "ringan": 4259,
      "spo": 4260,
      "send": 4261,
      "seng": 4262,
      "sha": 4263,
      "sapa": 4264,
      "solo": 4265,
      "swi": 4266,
      "sresponsible": 4267,
      "tf": 4268,
      "tap": 4269,
      "tom": 4270,
      "tong": 4271,
      "tlid": 4272,
      "vit": 4273,
      "valu": 4274,
      "yon": 4275,
      "ybund": 4276,
      "zz": 4277,
      "zan": 4278,
      "zakat": 4279,
      "anal": 4280,
      "anakan": 4281,
      "aneh": 4282,
      "ers": 4283,
      "erang": 4284,
      "inja": 4285,
      "inplay": 4286,
      "infin": 4287,
      "inning": 4288,
      "ene": 4289,
      "enam": 4290,
      "ark": 4291,
      "arah": 4292,
      "ating": 4293,
      "asn": 4294,
      "aspek": 4295,
      "alom": 4296,
      "alum": 4297,
      "alham": 4298,
      "amo": 4299,
      "amah": 4300,
      "amart": 4301,
      "aker": 4302,
      "akata": 4303,
      "akasih": 4304,
      "ahi": 4305,
      "ahun": 4306,
      "ahari": 4307,
      "ahha": 4308,
      "onlin": 4309,
      "only": 4310,
      "diken": 4311,
      "dicari": 4312,
      "dijalan": 4313,
      "diduga": 4314,
      "dianggap": 4315,
      "digemari": 4316,
      "dilengkapi": 4317,
      "unik": 4318,
      "unsur": 4319,
      "until": 4320,
      "sil": 4321,
      "situ": 4322,
      "siaran": 4323,
      "simak": 4324,
      "sikat": 4325,
      "eld": 4326,
      "elemen": 4327,
      "mene": 4328,
      "menun": 4329,
      "menus": 4330,
      "menangan": 4331,
      "menjual": 4332,
      "menentukan": 4333,
      "mendistribusi": 4334,
      "menciptakan": 4335,
      "ikali": 4336,
      "tere": 4337,
      "terli": 4338,
      "terasi": 4339,
      "terasa": 4340,
      "terbat": 4341,
      "terutama": 4342,
      "terjamin": 4343,
      "terduga": 4344,
      "tersangka": 4345,
      "apor": 4346,
      "berlin": 4347,
      "berkel": 4348,
      "berpengalaman": 4349,
      "bernama": 4350,
      "berdas": 4351,
      "berharga": 4352,
      "berbelanja": 4353,
      "bermanfaat": 4354,
      "berjualan": 4355,
      "berpotensi": 4356,
      "berujung": 4357,
      "ety": 4358,
      "etahui": 4359,
      "esliga": 4360,
      "laz": 4361,
      "maj": 4362,
      "may": 4363,
      "magn": 4364,
      "inget": 4365,
      "ingey": 4366,
      "usin": 4367,
      "uskan": 4368,
      "usnya": 4369,
      "usinya": 4370,
      "usuri": 4371,
      "kanan": 4372,
      "lier": 4373,
      "lifest": 4374,
      "permasalah": 4375,
      "perubah": 4376,
      "pergur": 4377,
      "gach": 4378,
      "gagal": 4379,
      "itbacid": 4380,
      "ungg": 4381,
      "asign": 4382,
      "prap": 4383,
      "pres": 4384,
      "isya": 4385,
      "istr": 4386,
      "dec": 4387,
      "def": 4388,
      "baya": 4389,
      "badan": 4390,
      "sedi": 4391,
      "sesi": 4392,
      "segi": 4393,
      "seorang": 4394,
      "sebagian": 4395,
      "segini": 4396,
      "sebentar": 4397,
      "sekawan": 4398,
      "seiring": 4399,
      "utang": 4400,
      "utamakan": 4401,
      "nyaa": 4402,
      "nyaaa": 4403,
      "mainnya": 4404,
      "tiga": 4405,
      "tiada": 4406,
      "regi": 4407,
      "rechar": 4408,
      "receh": 4409,
      "oku": 4410,
      "okage": 4411,
      "penga": 4412,
      "penangan": 4413,
      "memin": 4414,
      "membeli": 4415,
      "membayar": 4416,
      "membuka": 4417,
      "key": 4418,
      "ular": 4419,
      "ulti": 4420,
      "ulusan": 4421,
      "banteng": 4422,
      "ukar": 4423,
      "sta": 4424,
      "sten": 4425,
      "stay": 4426,
      "stres": 4427,
      "stagram": 4428,
      "layar": 4429,
      "layak": 4430,
      "umur": 4431,
      "gamee": 4432,
      "gamecrash": 4433,
      "ley": 4434,
      "lebar": 4435,
      "lead": 4436,
      "legen": 4437,
      "raja": 4438,
      "rabu": 4439,
      "aria": 4440,
      "arian": 4441,
      "bicara": 4442,
      "indra": 4443,
      "ekinya": 4444,
      "pop": 4445,
      "polit": 4446,
      "gia": 4447,
      "giur": 4448,
      "tuan": 4449,
      "tugu": 4450,
      "playhomehotgame": 4451,
      "atihan": 4452,
      "ativitas": 4453,
      "wkkw": 4454,
      "sele": 4455,
      "seler": 4456,
      "seller": 4457,
      "iden": 4458,
      "cha": 4459,
      "chin": 4460,
      "chain": 4461,
      "choi": 4462,
      "chann": 4463,
      "udes": 4464,
      "loh": 4465,
      "loyal": 4466,
      "loudlycry": 4467,
      "barcel": 4468,
      "sau": 4469,
      "saut": 4470,
      "taek": 4471,
      "taina": 4472,
      "tautan": 4473,
      "sparan": 4474,
      "mengatas": 4475,
      "mengklik": 4476,
      "mengerti": 4477,
      "menguji": 4478,
      "mengoptim": 4479,
      "mengalir": 4480,
      "menghasilkan": 4481,
      "mengetahui": 4482,
      "mengutamakan": 4483,
      "trak": 4484,
      "truk": 4485,
      "tration": 4486,
      "agust": 4487,
      "door": 4488,
      "offer": 4489,
      "kala": 4490,
      "covid": 4491,
      "peman": 4492,
      "pembuat": 4493,
      "pembiaya": 4494,
      "pembangunan": 4495,
      "kaga": 4496,
      "kabel": 4497,
      "target": 4498,
      "mandi": 4499,
      "manybund": 4500,
      "seminggu": 4501,
      "sembahkan": 4502,
      "semarang": 4503,
      "sempurna": 4504,
      "add": 4505,
      "adzan": 4506,
      "med": 4507,
      "mei": 4508,
      "mekan": 4509,
      "pengar": 4510,
      "massa": 4511,
      "masukan": 4512,
      "case": 4513,
      "peduli": 4514,
      "yakin": 4515,
      "dewado": 4516,
      "arab": 4517,
      "prove": 4518,
      "proje": 4519,
      "properti": 4520,
      "robot": 4521,
      "roblox": 4522,
      "mual": 4523,
      "siaga": 4524,
      "meremeh": 4525,
      "visi": 4526,
      "vivo": 4527,
      "forum": 4528,
      "nostal": 4529,
      "ther": 4530,
      "thank": 4531,
      "imp": 4532,
      "impl": 4533,
      "improve": 4534,
      "moonton": 4535,
      "ated": 4536,
      "onten": 4537,
      "ngalah": 4538,
      "ngonten": 4539,
      "casinolive": 4540,
      "casinowe": 4541,
      "casinoog": 4542,
      "casinopt": 4543,
      "casinowm": 4544,
      "boneka": 4545,
      "bangett": 4546,
      "hando": 4547,
      "melangg": 4548,
      "faatkan": 4549,
      "goid": 4550,
      "tear": 4551,
      "tekan": 4552,
      "pasca": 4553,
      "pastinya": 4554,
      "besaran": 4555,
      "hotnew": 4556,
      "winrate": 4557,
      "winstagram": 4558,
      "untuk": 4559,
      "memberdayakan": 4560,
      "hout": 4561,
      "host": 4562,
      "beaut": 4563,
      "begini": 4564,
      "menyam": 4565,
      "pantas": 4566,
      "pantau": 4567,
      "grinning": 4568,
      "minat": 4569,
      "minyak": 4570,
      "bahu": 4571,
      "gerakan": 4572,
      "germanybund": 4573,
      "kue": 4574,
      "ppn": 4575,
      "queen": 4576,
      "estina": 4577,
      "indahan": 4578,
      "ihih": 4579,
      "sportasi": 4580,
      "kereta": 4581,
      "antplaya": 4582,
      "bayang": 4583,
      "transparan": 4584,
      "transportasi": 4585,
      "iau": 4586,
      "ply": 4587,
      "kelar": 4588,
      "keluhan": 4589,
      "comm": 4590,
      "commuter": 4591,
      "sudir": 4592,
      "mahal": 4593,
      "pack": 4594,
      "paikan": 4595,
      "makna": 4596,
      "windahh": 4597,
      "pertanian": 4598,
      "kesan": 4599,
      "harik": 4600,
      "harusnya": 4601,
      "like": 4602,
      "evos": 4603,
      "hija": 4604,
      "rezekinya": 4605,
      "kemenkes": 4606,
      "mirip": 4607,
      "orangorang": 4608,
      "timoni": 4609,
      "pintu": 4610,
      "pintar": 4611,
      "bill": 4612,
      "pemainnya": 4613,
      "fight": 4614,
      "ports": 4615,
      "tphone": 4616,
      "paris": 4617,
      "parlay": 4618,
      "konsi": 4619,
      "konser": 4620,
      "kondisi": 4621,
      "sambung": 4622,
      "samping": 4623,
      "totofire": 4624,
      "astra": 4625,
      "nice": 4626,
      "kinerja": 4627,
      "seruu": 4628,
      "nowhomehotgame": 4629,
      "nowhomehotgam": 4630,
      "head": 4631,
      "hewan": 4632,
      "kamar": 4633,
      "kampung": 4634,
      "joo": 4635,
      "pton": 4636,
      "pokerpoker": 4637,
      "ditentukan": 4638,
      "starwin": 4639,
      "olymp": 4640,
      "bulanan": 4641,
      "gems": 4642,
      "tempatnya": 4643,
      "multip": 4644,
      "topik": 4645,
      "drak": 4646,
      "tanda": 4647,
      "woo": 4648,
      "wow": 4649,
      "wowk": 4650,
      "strem": 4651,
      "strong": 4652,
      "penggunanya": 4653,
      "cial": 4654,
      "totomacau": 4655,
      "smglucky": 4656,
      "torat": 4657,
      "detikcom": 4658,
      "detikdetik": 4659,
      "dilarang": 4660,
      "hampton": 4661,
      "jogj": 4662,
      "exchang": 4663,
      "koko": 4664,
      "class": 4665,
      "eee": 4666,
      "surend": 4667,
      "surrend": 4668,
      "kecam": 4669,
      "burgernya": 4670,
      "orial": 4671,
      "olahragaolahraga": 4672,
      "jenius": 4673,
      "matahari": 4674,
      "makanan": 4675,
      "hadiahnya": 4676,
      "rusia": 4677,
      "transmisi": 4678,
      "apibet": 4679,
      "penyebab": 4680,
      "idnlive": 4681,
      "solution": 4682,
      "penuhi": 4683,
      "dewadorabikin": 4684,
      "ription": 4685,
      "dapetin": 4686,
      "tradem": 4687,
      "realita": 4688,
      "awalnya": 4689,
      "token": 4690,
      "twins": 4691,
      "arcadearcade": 4692,
      "domtotofire": 4693,
      "kenalkan": 4694,
      "elec": 4695,
      "prote": 4696,
      "bonanz": 4697,
      "desktop": 4698,
      "korpor": 4699,
      "pesat": 4700,
      "pesta": 4701,
      "rasuna": 4702,
      "namen": 4703,
      "savagen": 4704,
      "agenda": 4705,
      "januari": 4706,
      "suku": 4707,
      "simpel": 4708,
      "redtiger": 4709,
      "lembut": 4710,
      "persent": 4711,
      "ancaman": 4712,
      "elogo": 4713,
      "bekas": 4714,
      "block": 4715,
      "donate": 4716,
      "jatoh": 4717,
      "kurs": 4718,
      "monster": 4719,
      "monitor": 4720,
      "rrr": 4721,
      "tangga": 4722,
      "usertoday": 4723,
      "khususnya": 4724,
      "humani": 4725,
      "bitcoin": 4726,
      "hybir": 4727,
      "ujian": 4728,
      "coklat": 4729,
      "krul": 4730,
      "wisdomtotofire": 4731,
      "indiana": 4732,
      "indikat": 4733,
      "favoritmu": 4734,
      "cane": 4735,
      "kunci": 4736,
      "menerus": 4737,
      "kebutuhanmu": 4738,
      "mempercepat": 4739,
      "supportgambling": 4740,
      "tree": 4741,
      "ayamsabung": 4742,
      "porate": 4743,
      "publikasi": 4744,
      "rasain": 4745,
      "zeus": 4746,
      "koded": 4747,
      "creator": 4748,
      "green": 4749,
      "greget": 4750,
      "pandemi": 4751,
      "kantorbola": 4752,
      "lotterypoker": 4753,
      "slotsslots": 4754,
      "berlisensi": 4755,
      "kamiterms": 4756,
      "reksa": 4757,
      "pelajaran": 4758,
      "dugaan": 4759,
      "singapura": 4760,
      "ground": 4761,
      "hapus": 4762,
      "muhaimin": 4763,
      "sustaina": 4764,
      "tantang": 4765,
      "anjutan": 4766,
      "diperbarui": 4767,
      "pecahin": 4768,
      "ninjaaaa": 4769,
      "marketpla": 4770,
      "btw": 4771,
      "corporate": 4772,
      "gendong": 4773,
      "jerat": 4774,
      "mike": 4775,
      "tyson": 4776,
      "periode": 4777,
      "seharihari": 4778,
      "stusnya": 4779,
      "subscription": 4780,
      "denger": 4781,
      "amerika": 4782,
      "menurut": 4783,
      "menursg": 4784,
      "tidak": 4785,
      "tahankan": 4786,
      "musuh": 4787,
      "nonstop": 4788,
      "pliss": 4789,
      "rating": 4790,
      "ratusan": 4791,
      "tutup": 4792,
      "vsolymp": 4793,
      "disclaimer": 4794,
      "pendekatan": 4795,
      "chool": 4796,
      "persons": 4797,
      "cleopatras": 4798,
      "blibli": 4799,
      "efisiensi": 4800,
      "range": 4801,
      "ranger": 4802,
      "square": 4803,
      "liburan": 4804,
      "memanfaatkan": 4805,
      "vietnam": 4806,
      "kompascom": 4807,
      "conditionsresponsible": 4808,
      "blokir": 4809,
      "smilingfacewith": 4810,
      "dokumen": 4811,
      "dokumentasi": 4812,
      "httpswwwinstagram": 4813,
      "bundle": 4814,
      "click": 4815,
      "lelang": 4816,
      "nano": 4817,
      "testimoni": 4818,
      "united": 4819,
      "memakai": 4820,
      "memutar": 4821,
      "mengenai": 4822,
      "dulillah": 4823,
      "bengek": 4824,
      "kilat": 4825,
      "smartphone": 4826,
      "zomboss": 4827,
      "berkalikali": 4828,
      "penelitian": 4829,
      "pengembangan": 4830,
      "muhammad": 4831,
      "title": 4832,
      "watch": 4833,
      "inspirasi": 4834,
      "timeliv": 4835,
      "keanggotaanmu": 4836,
      "ilegal": 4837,
      "ketiga": 4838,
      "kerucut": 4839,
      "hianat": 4840,
      "excit": 4841,
      "extspin": 4842,
      "institusi": 4843,
      "destination": 4844,
      "penerimaan": 4845,
      "bamslot": 4846,
      "batubara": 4847,
      "every": 4848,
      "glory": 4849,
      "mongol": 4850,
      "nutrisi": 4851,
      "nusantara": 4852,
      "pameran": 4853,
      "pimpinan": 4854,
      "uncurkan": 4855,
      "organisasi": 4856,
      "menengah": 4857,
      "sekedar": 4858,
      "sekadar": 4859,
      "sebelumnya": 4860,
      "stepstep": 4861,
      "pengelolaan": 4862,
      "kosmetik": 4863,
      "kemudian": 4864,
      "respect": 4865,
      "tingkatkan": 4866,
      "nyamuk": 4867,
      "science": 4868,
      "screen": 4869,
      "entertainment": 4870,
      "hyperspin": 4871,
      "developer": 4872,
      "categoryicon": 4873,
      "information": 4874,
      "cpns": 4875,
      "festival": 4876,
      "rutin": 4877,
      "spoiler": 4878,
      "shadow": 4879,
      "anakanak": 4880,
      "alomani": 4881,
      "alumnus": 4882,
      "alhamdulillah": 4883,
      "menangani": 4884,
      "mendistribusikan": 4885,
      "terbatas": 4886,
      "berdasarkan": 4887,
      "magnum": 4888,
      "ingeyes": 4889,
      "lifestyle": 4890,
      "permasalahan": 4891,
      "perubahan": 4892,
      "perguruan": 4893,
      "gachor": 4894,
      "asignalbank": 4895,
      "regional": 4896,
      "recharge": 4897,
      "penanganan": 4898,
      "leader": 4899,
      "legenda": 4900,
      "choice": 4901,
      "barcelon": 4902,
      "mengoptimalkan": 4903,
      "pembiayaan": 4904,
      "meremehkan": 4905,
      "melanggar": 4906,
      "germanybundesliga": 4907,
      "sudirman": 4908,
      "smgluckytwins": 4909,
      "exchange": 4910,
      "transmisikan": 4911,
      "trademark": 4912,
      "savagenya": 4913,
      "usertodaym": 4914,
      "hybird": 4915,
      "marketplace": 4916,
      "httpswwwinstagramcom": 4917,
      "aang": 4918,
      "aur": 4919,
      "abar": 4920,
      "aca": 4921,
      "ajak": 4922,
      "agama": 4923,
      "bb": 4924,
      "bik": 4925,
      "basi": 4926,
      "bok": 4927,
      "bari": 4928,
      "bakan": 4929,
      "bud": 4930,
      "brp": 4931,
      "btp": 4932,
      "bright": 4933,
      "blit": 4934,
      "bby": 4935,
      "bbm": 4936,
      "cc": 4937,
      "cf": 4938,
      "cus": 4939,
      "cis": 4940,
      "cent": 4941,
      "core": 4942,
      "ccess": 4943,
      "cali": 4944,
      "cator": 4945,
      "cked": 4946,
      "cube": 4947,
      "cemas": 4948,
      "cender": 4949,
      "caranya": 4950,
      "cantik": 4951,
      "dp": 4952,
      "dent": 4953,
      "dpt": 4954,
      "dmg": 4955,
      "eg": 4956,
      "eu": 4957,
      "eter": 4958,
      "eja": 4959,
      "ece": 4960,
      "equ": 4961,
      "ebook": 4962,
      "eball": 4963,
      "ft": 4964,
      "fu": 4965,
      "fol": 4966,
      "fikan": 4967,
      "fres": 4968,
      "flat": 4969,
      "furn": 4970,
      "gus": 4971,
      "gub": 4972,
      "gant": 4973,
      "gni": 4974,
      "hr": 4975,
      "hik": 4976,
      "hutan": 4977,
      "ij": 4978,
      "iq": 4979,
      "idi": 4980,
      "ide": 4981,
      "ibn": 4982,
      "jari": 4983,
      "jika": 4984,
      "jemen": 4985,
      "kb": 4986,
      "kung": 4987,
      "kuh": 4988,
      "kmu": 4989,
      "kent": 4990,
      "kwkwkw": 4991,
      "lm": 4992,
      "lolo": 4993,
      "lulu": 4994,
      "lulusan": 4995,
      "mur": 4996,
      "mind": 4997,
      "mid": 4998,
      "mpl": 4999,
      "mhum": 5000,
      "muti": 5001,
      "nd": 5002,
      "nu": 5003,
      "nar": 5004,
      "nang": 5005,
      "nak": 5006,
      "nap": 5007,
      "nasi": 5008,
      "napo": 5009,
      "nanggung": 5010,
      "oc": 5011,
      "ou": 5012,
      "ox": 5013,
      "osi": 5014,
      "oot": 5015,
      "ojk": 5016,
      "pd": 5017,
      "pam": 5018,
      "puh": 5019,
      "plin": 5020,
      "psc": 5021,
      "plit": 5022,
      "psg": 5023,
      "plagi": 5024,
      "pukul": 5025,
      "qi": 5026,
      "ron": 5027,
      "run": 5028,
      "ring": 5029,
      "rung": 5030,
      "rul": 5031,
      "rub": 5032,
      "rng": 5033,
      "sari": 5034,
      "song": 5035,
      "sara": 5036,
      "skem": 5037,
      "saran": 5038,
      "sant": 5039,
      "shir": 5040,
      "sday": 5041,
      "shum": 5042,
      "slow": 5043,
      "sbm": 5044,
      "tm": 5045,
      "tn": 5046,
      "tal": 5047,
      "tme": 5048,
      "tonton": 5049,
      "uas": 5050,
      "ubi": 5051,
      "ujan": 5052,
      "ugas": 5053,
      "vill": 5054,
      "ws": 5055,
      "wang": 5056,
      "wes": 5057,
      "wakan": 5058,
      "wasa": 5059,
      "wish": 5060,
      "yg": 5061,
      "yek": 5062,
      "yati": 5063,
      "yong": 5064,
      "yalah": 5065,
      "zi": 5066,
      "zo": 5067,
      "zen": 5068,
      "ztec": 5069,
      "anto": 5070,
      "anim": 5071,
      "anyah": 5072,
      "erap": 5073,
      "ering": 5074,
      "inn": 5075,
      "inu": 5076,
      "inan": 5077,
      "inar": 5078,
      "inam": 5079,
      "inde": 5080,
      "intr": 5081,
      "insen": 5082,
      "iness": 5083,
      "indek": 5084,
      "inilah": 5085,
      "informat": 5086,
      "eno": 5087,
      "enyak": 5088,
      "arok": 5089,
      "arreal": 5090,
      "arena": 5091,
      "atl": 5092,
      "ater": 5093,
      "asu": 5094,
      "asel": 5095,
      "aslot": 5096,
      "asport": 5097,
      "asher": 5098,
      "asuna": 5099,
      "angkap": 5100,
      "alwin": 5101,
      "alatan": 5102,
      "amal": 5103,
      "amem": 5104,
      "ambah": 5105,
      "ampuan": 5106,
      "akur": 5107,
      "aksan": 5108,
      "akkk": 5109,
      "aksana": 5110,
      "aksesi": 5111,
      "ahh": 5112,
      "ahnya": 5113,
      "ahjong": 5114,
      "ahihih": 5115,
      "eme": 5116,
      "emak": 5117,
      "empuan": 5118,
      "emahjong": 5119,
      "onan": 5120,
      "onen": 5121,
      "dire": 5122,
      "dika": 5123,
      "dilan": 5124,
      "dicoba": 5125,
      "didapatkan": 5126,
      "diatur": 5127,
      "diatas": 5128,
      "dibuka": 5129,
      "dialami": 5130,
      "dipastikan": 5131,
      "dimenangkan": 5132,
      "diraih": 5133,
      "dimaksud": 5134,
      "dimengerti": 5135,
      "dipengar": 5136,
      "unter": 5137,
      "unpad": 5138,
      "sii": 5139,
      "sita": 5140,
      "sional": 5141,
      "sibuk": 5142,
      "signi": 5143,
      "orama": 5144,
      "orent": 5145,
      "orning": 5146,
      "menda": 5147,
      "menim": 5148,
      "mengac": 5149,
      "menant": 5150,
      "mendapat": 5151,
      "mendorong": 5152,
      "mentransmisikan": 5153,
      "iki": 5154,
      "ikn": 5155,
      "ikon": 5156,
      "terim": 5157,
      "terlebih": 5158,
      "tergacor": 5159,
      "terapi": 5160,
      "terbuka": 5161,
      "terbit": 5162,
      "terupdate": 5163,
      "terapkan": 5164,
      "tertarik": 5165,
      "terjebak": 5166,
      "tersisa": 5167,
      "terlepas": 5168,
      "yaa": 5169,
      "ote": 5170,
      "otot": 5171,
      "otog": 5172,
      "otcom": 5173,
      "otaku": 5174,
      "apala": 5175,
      "bergi": 5176,
      "berunt": 5177,
      "berbuat": 5178,
      "beritas": 5179,
      "berjudi": 5180,
      "berdoa": 5181,
      "berkembang": 5182,
      "bermuncul": 5183,
      "berkumpul": 5184,
      "berdampak": 5185,
      "ethe": 5186,
      "etahuan": 5187,
      "espa": 5188,
      "essional": 5189,
      "laen": 5190,
      "laga": 5191,
      "lacak": 5192,
      "mag": 5193,
      "mail": 5194,
      "maju": 5195,
      "macan": 5196,
      "inggr": 5197,
      "inginan": 5198,
      "usak": 5199,
      "ustry": 5200,
      "kandar": 5201,
      "lio": 5202,
      "liun": 5203,
      "ligue": 5204,
      "libatan": 5205,
      "literasi": 5206,
      "perin": 5207,
      "perut": 5208,
      "perikan": 5209,
      "persen": 5210,
      "peruntungan": 5211,
      "perhitungan": 5212,
      "perbaikan": 5213,
      "peralatan": 5214,
      "perempuan": 5215,
      "gaja": 5216,
      "gabungan": 5217,
      "gawai": 5218,
      "ituh": 5219,
      "ungu": 5220,
      "oman": 5221,
      "oming": 5222,
      "omba": 5223,
      "ompat": 5224,
      "urus": 5225,
      "urutan": 5226,
      "printer": 5227,
      "pramon": 5228,
      "prise": 5229,
      "istan": 5230,
      "isoi": 5231,
      "iskandar": 5232,
      "device": 5233,
      "depok": 5234,
      "baju": 5235,
      "jajp": 5236,
      "jajan": 5237,
      "gamers": 5238,
      "see": 5239,
      "sei": 5240,
      "sepel": 5241,
      "sebut": 5242,
      "seki": 5243,
      "seye": 5244,
      "segal": 5245,
      "secur": 5246,
      "sebaga": 5247,
      "sebutan": 5248,
      "sehebat": 5249,
      "seven": 5250,
      "sevilla": 5251,
      "uthampton": 5252,
      "mainmain": 5253,
      "mainmahjong": 5254,
      "tipi": 5255,
      "ree": 5256,
      "report": 5257,
      "reformasi": 5258,
      "recal": 5259,
      "republik": 5260,
      "okl": 5261,
      "okasi": 5262,
      "penal": 5263,
      "pensi": 5264,
      "pengam": 5265,
      "penonton": 5266,
      "penjudi": 5267,
      "pencah": 5268,
      "penjualan": 5269,
      "memban": 5270,
      "memuka": 5271,
      "membaca": 5272,
      "membunuh": 5273,
      "waduh": 5274,
      "waving": 5275,
      "keju": 5276,
      "kepan": 5277,
      "kepulau": 5278,
      "kekalah": 5279,
      "kegem": 5280,
      "kebun": 5281,
      "kesim": 5282,
      "kehabis": 5283,
      "kekaya": 5284,
      "kehil": 5285,
      "kebahagi": 5286,
      "kebudaya": 5287,
      "keadi": 5288,
      "keinginan": 5289,
      "uld": 5290,
      "uler": 5291,
      "ultah": 5292,
      "oleh": 5293,
      "ilham": 5294,
      "ukkan": 5295,
      "ukaran": 5296,
      "stre": 5297,
      "stage": 5298,
      "strim": 5299,
      "layah": 5300,
      "riz": 5301,
      "riman": 5302,
      "dadakan": 5303,
      "ump": 5304,
      "umpul": 5305,
      "umpan": 5306,
      "learning": 5307,
      "ragam": 5308,
      "ragn": 5309,
      "bim": 5310,
      "biarkan": 5311,
      "biologi": 5312,
      "biraan": 5313,
      "industry": 5314,
      "pod": 5315,
      "poo": 5316,
      "gian": 5317,
      "gigi": 5318,
      "girl": 5319,
      "tuar": 5320,
      "tubuh": 5321,
      "slotfishing": 5322,
      "playhomehotgam": 5323,
      "upg": 5324,
      "wkkwkw": 5325,
      "seleksi": 5326,
      "uhu": 5327,
      "chless": 5328,
      "udent": 5329,
      "lost": 5330,
      "barca": 5331,
      "sage": 5332,
      "sabun": 5333,
      "sains": 5334,
      "tayang": 5335,
      "spor": 5336,
      "space": 5337,
      "iru": 5338,
      "irama": 5339,
      "mengha": 5340,
      "mengalah": 5341,
      "mengham": 5342,
      "mengaki": 5343,
      "mengubah": 5344,
      "mengungkap": 5345,
      "mengatasi": 5346,
      "mengatakan": 5347,
      "menggiur": 5348,
      "mengumpul": 5349,
      "trs": 5350,
      "tral": 5351,
      "trus": 5352,
      "trump": 5353,
      "cept": 5354,
      "cegah": 5355,
      "cewakan": 5356,
      "agan": 5357,
      "agement": 5358,
      "agnes": 5359,
      "ongkir": 5360,
      "ckfight": 5361,
      "bohong": 5362,
      "cockfight": 5363,
      "cabang": 5364,
      "sitas": 5365,
      "pemilih": 5366,
      "pembelaj": 5367,
      "pemimpin": 5368,
      "uau": 5369,
      "manis": 5370,
      "manapun": 5371,
      "management": 5372,
      "sempat": 5373,
      "adver": 5374,
      "adanya": 5375,
      "luas": 5376,
      "luma": 5377,
      "media": 5378,
      "mewujudkan": 5379,
      "town": 5380,
      "pengelu": 5381,
      "pengunj": 5382,
      "pengetahuan": 5383,
      "serem": 5384,
      "serba": 5385,
      "serent": 5386,
      "pattern": 5387,
      "cast": 5388,
      "castle": 5389,
      "peca": 5390,
      "pedia": 5391,
      "petern": 5392,
      "pegawai": 5393,
      "udahokl": 5394,
      "koca": 5395,
      "kocag": 5396,
      "juli": 5397,
      "puiau": 5398,
      "hai": 5399,
      "habilit": 5400,
      "proyek": 5401,
      "room": 5402,
      "roda": 5403,
      "road": 5404,
      "mula": 5405,
      "ketebak": 5406,
      "merubah": 5407,
      "merusak": 5408,
      "tember": 5409,
      "temanya": 5410,
      "kemampuan": 5411,
      "jadikan": 5412,
      "visit": 5413,
      "vival": 5414,
      "ford": 5415,
      "fornia": 5416,
      "thing": 5417,
      "three": 5418,
      "harihari": 5419,
      "ayu": 5420,
      "kapal": 5421,
      "apabila": 5422,
      "andan": 5423,
      "andre": 5424,
      "imi": 5425,
      "imat": 5426,
      "mod": 5427,
      "mouth": 5428,
      "movie": 5429,
      "pulan": 5430,
      "nger": 5431,
      "ngasih": 5432,
      "ngey": 5433,
      "ngatur": 5434,
      "ngerja": 5435,
      "ngesel": 5436,
      "ngalir": 5437,
      "hatikan": 5438,
      "awi": 5439,
      "awat": 5440,
      "awas": 5441,
      "bangettt": 5442,
      "hancur": 5443,
      "mele": 5444,
      "banyaknya": 5445,
      "fac": 5446,
      "gacr": 5447,
      "gojek": 5448,
      "googie": 5449,
      "teh": 5450,
      "permainannya": 5451,
      "paslon": 5452,
      "sensa": 5453,
      "senanti": 5454,
      "sengaja": 5455,
      "hotel": 5456,
      "winda": 5457,
      "pelatihan": 5458,
      "pelaksana": 5459,
      "betapa": 5460,
      "icc": 5461,
      "icrogaming": 5462,
      "ication": 5463,
      "wed": 5464,
      "week": 5465,
      "wepoker": 5466,
      "hod": 5467,
      "hoo": 5468,
      "menyerah": 5469,
      "menyatakan": 5470,
      "panye": 5471,
      "pantes": 5472,
      "bursa": 5473,
      "buruan": 5474,
      "ally": 5475,
      "allah": 5476,
      "grasi": 5477,
      "nyo": 5478,
      "nyala": 5479,
      "nyenyak": 5480,
      "vermouth": 5481,
      "dapur": 5482,
      "kompasi": 5483,
      "komplit": 5484,
      "minum": 5485,
      "sesports": 5486,
      "gunya": 5487,
      "gggg": 5488,
      "bahaya": 5489,
      "gercep": 5490,
      "karen": 5491,
      "karbon": 5492,
      "kusi": 5493,
      "kulit": 5494,
      "price": 5495,
      "bonusbonus": 5496,
      "bencana": 5497,
      "soc": 5498,
      "sour": 5499,
      "solid": 5500,
      "southampton": 5501,
      "ihh": 5502,
      "buatan": 5503,
      "kera": 5504,
      "kereen": 5505,
      "menangnya": 5506,
      "bayangin": 5507,
      "plore": 5508,
      "syg": 5509,
      "syukur": 5510,
      "como": 5511,
      "coming": 5512,
      "combo": 5513,
      "compet": 5514,
      "commit": 5515,
      "commun": 5516,
      "suatu": 5517,
      "paus": 5518,
      "akui": 5519,
      "pertukaran": 5520,
      "kesel": 5521,
      "kesuk": 5522,
      "kesabar": 5523,
      "appli": 5524,
      "harap": 5525,
      "harvest": 5526,
      "harapkan": 5527,
      "cakup": 5528,
      "kencang": 5529,
      "naf": 5530,
      "ipswi": 5531,
      "cobacoba": 5532,
      "ajaquot": 5533,
      "food": 5534,
      "tersebar": 5535,
      "timnas": 5536,
      "pink": 5537,
      "pinjol": 5538,
      "ishing": 5539,
      "edan": 5540,
      "edang": 5541,
      "telur": 5542,
      "fiorent": 5543,
      "alayak": 5544,
      "action": 5545,
      "tpi": 5546,
      "tps": 5547,
      "parfum": 5548,
      "lengkapnya": 5549,
      "konfirmasi": 5550,
      "kontrak": 5551,
      "samasama": 5552,
      "sampaikan": 5553,
      "mudahnya": 5554,
      "bisul": 5555,
      "setara": 5556,
      "kimember": 5557,
      "payung": 5558,
      "cuy": 5559,
      "sanjaya": 5560,
      "brak": 5561,
      "brasi": 5562,
      "broker": 5563,
      "kampanye": 5564,
      "palestina": 5565,
      "petugas": 5566,
      "yediakan": 5567,
      "disangka": 5568,
      "diskusi": 5569,
      "batasan": 5570,
      "oregon": 5571,
      "joy": 5572,
      "ptn": 5573,
      "ditonton": 5574,
      "ditambah": 5575,
      "salut": 5576,
      "wanit": 5577,
      "start": 5578,
      "facebluesmil": 5579,
      "darmo": 5580,
      "crasher": 5581,
      "interaktif": 5582,
      "logistik": 5583,
      "mark": 5584,
      "mary": 5585,
      "terbarukan": 5586,
      "message": 5587,
      "heran": 5588,
      "rumus": 5589,
      "produksi": 5590,
      "produkproduk": 5591,
      "multi": 5592,
      "voli": 5593,
      "volit": 5594,
      "namaqq": 5595,
      "ikutan": 5596,
      "chatnya": 5597,
      "drone": 5598,
      "tank": 5599,
      "woyy": 5600,
      "tahunan": 5601,
      "skip": 5602,
      "upaya": 5603,
      "taruhanxbet": 5604,
      "rumahnya": 5605,
      "rumahmpo": 5606,
      "duni": 5607,
      "gelang": 5608,
      "pertamax": 5609,
      "bukamo": 5610,
      "gulungan": 5611,
      "smpe": 5612,
      "smorning": 5613,
      "should": 5614,
      "tiktok": 5615,
      "quotkalah": 5616,
      "audio": 5617,
      "galeri": 5618,
      "panikk": 5619,
      "panikkk": 5620,
      "explore": 5621,
      "gargan": 5622,
      "garden": 5623,
      "garudahoki": 5624,
      "garudahokl": 5625,
      "opsi": 5626,
      "pascolhoki": 5627,
      "autom": 5628,
      "duit": 5629,
      "survival": 5630,
      "alias": 5631,
      "bass": 5632,
      "basudara": 5633,
      "baseball": 5634,
      "jpdewa": 5635,
      "warga": 5636,
      "waris": 5637,
      "wardah": 5638,
      "siapan": 5639,
      "pilihlah": 5640,
      "jelaskan": 5641,
      "netanyah": 5642,
      "keluaran": 5643,
      "keluarkan": 5644,
      "jiran": 5645,
      "matang": 5646,
      "materi": 5647,
      "meta": 5648,
      "metro": 5649,
      "method": 5650,
      "rambut": 5651,
      "sekalipun": 5652,
      "sekaligus": 5653,
      "wkwkwkkw": 5654,
      "bunga": 5655,
      "bunda": 5656,
      "bunyi": 5657,
      "fear": 5658,
      "feed": 5659,
      "rugi": 5660,
      "uburubur": 5661,
      "transformasi": 5662,
      "dash": 5663,
      "idnpoker": 5664,
      "lanjutan": 5665,
      "ganes": 5666,
      "solusinya": 5667,
      "professional": 5668,
      "dahoki": 5669,
      "odin": 5670,
      "riple": 5671,
      "pelanggaran": 5672,
      "trade": 5673,
      "wilayah": 5674,
      "halhal": 5675,
      "agoid": 5676,
      "dewadoabikin": 5677,
      "jualbeli": 5678,
      "sss": 5679,
      "sumedang": 5680,
      "mitracomm": 5681,
      "binet": 5682,
      "misalnya": 5683,
      "puncak": 5684,
      "elegram": 5685,
      "advan": 5686,
      "juru": 5687,
      "juragan": 5688,
      "ture": 5689,
      "turnamen": 5690,
      "esportsesports": 5691,
      "ingkatan": 5692,
      "desu": 5693,
      "desember": 5694,
      "dingin": 5695,
      "gmw": 5696,
      "pesawat": 5697,
      "tenaga": 5698,
      "ekosistem": 5699,
      "powered": 5700,
      "danatau": 5701,
      "namakan": 5702,
      "triv": 5703,
      "triliun": 5704,
      "purch": 5705,
      "purnamaqq": 5706,
      "antisi": 5707,
      "eradilan": 5708,
      "simple": 5709,
      "redheart": 5710,
      "kotaku": 5711,
      "lembong": 5712,
      "osasuna": 5713,
      "singkat": 5714,
      "ttg": 5715,
      "tttt": 5716,
      "umumkan": 5717,
      "jepee": 5718,
      "blowing": 5719,
      "cyber": 5720,
      "donk": 5721,
      "hahahahaha": 5722,
      "gameshot": 5723,
      "ulangi": 5724,
      "bocoran": 5725,
      "waysmahjong": 5726,
      "gatot": 5727,
      "izinkan": 5728,
      "kendali": 5729,
      "enterprise": 5730,
      "asean": 5731,
      "memilihnya": 5732,
      "newsletter": 5733,
      "hitung": 5734,
      "kreativitas": 5735,
      "menemui": 5736,
      "background": 5737,
      "kayaknya": 5738,
      "butuhin": 5739,
      "axis": 5740,
      "jahter": 5741,
      "krl": 5742,
      "kret": 5743,
      "krna": 5744,
      "rencana": 5745,
      "wisuda": 5746,
      "temennya": 5747,
      "bolasport": 5748,
      "rela": 5749,
      "menerapkan": 5750,
      "striker": 5751,
      "doktor": 5752,
      "rahat": 5753,
      "rahayu": 5754,
      "tunda": 5755,
      "termurah": 5756,
      "mempermudah": 5757,
      "mempersembahkan": 5758,
      "memperkenalkan": 5759,
      "koigate": 5760,
      "supported": 5761,
      "borong": 5762,
      "faktor": 5763,
      "lgsg": 5764,
      "xbetambil": 5765,
      "mengajak": 5766,
      "capaian": 5767,
      "lampu": 5768,
      "lambat": 5769,
      "vely": 5770,
      "disiplin": 5771,
      "credit": 5772,
      "operasional": 5773,
      "artinya": 5774,
      "statistic": 5775,
      "promotionpromosi": 5776,
      "integrasikan": 5777,
      "bpk": 5778,
      "bps": 5779,
      "cetak": 5780,
      "demage": 5781,
      "retail": 5782,
      "ketawain": 5783,
      "freebet": 5784,
      "abangku": 5785,
      "sarang": 5786,
      "sarjana": 5787,
      "tukang": 5788,
      "serius": 5789,
      "andalkan": 5790,
      "sungguhan": 5791,
      "contohnya": 5792,
      "lngsung": 5793,
      "shin": 5794,
      "sinar": 5795,
      "susu": 5796,
      "terlaris": 5797,
      "terlatih": 5798,
      "september": 5799,
      "sertifikat": 5800,
      "prosesnya": 5801,
      "teamrrq": 5802,
      "teamtlid": 5803,
      "tokocrypto": 5804,
      "kelebihannya": 5805,
      "btg": 5806,
      "celana": 5807,
      "kyc": 5808,
      "miki": 5809,
      "pcso": 5810,
      "sdm": 5811,
      "slide": 5812,
      "slider": 5813,
      "tumbuhan": 5814,
      "anjr": 5815,
      "anjing": 5816,
      "amenyediakan": 5817,
      "jelasin": 5818,
      "caishens": 5819,
      "catat": 5820,
      "pertimbangan": 5821,
      "tribunnews": 5822,
      "goreng": 5823,
      "jekpot": 5824,
      "mcd": 5825,
      "mmm": 5826,
      "muslim": 5827,
      "tutorial": 5828,
      "alogo": 5829,
      "tertandingi": 5830,
      "charger": 5831,
      "pemujajp": 5832,
      "indonesiagoid": 5833,
      "gunungkidul": 5834,
      "laporkan": 5835,
      "kunjung": 5836,
      "pentaslotvip": 5837,
      "business": 5838,
      "kakashi": 5839,
      "sbobet": 5840,
      "squealin": 5841,
      "txsday": 5842,
      "txseven": 5843,
      "txsmorning": 5844,
      "organi": 5845,
      "otakudes": 5846,
      "bertanya": 5847,
      "gadget": 5848,
      "memanjakan": 5849,
      "mengejar": 5850,
      "mengecewakan": 5851,
      "menghina": 5852,
      "menghindari": 5853,
      "kompastv": 5854,
      "kompetitif": 5855,
      "footerimg": 5856,
      "kirain": 5857,
      "smilingeyes": 5858,
      "generasi": 5859,
      "kurangi": 5860,
      "stockbit": 5861,
      "bongkar": 5862,
      "clip": 5863,
      "early": 5864,
      "niaga": 5865,
      "pasien": 5866,
      "tbk": 5867,
      "zonk": 5868,
      "inklusif": 5869,
      "invite": 5870,
      "dimanja": 5871,
      "unjungi": 5872,
      "istilah": 5873,
      "istirahat": 5874,
      "memaksa": 5875,
      "memutuskan": 5876,
      "keterangan": 5877,
      "keterlibatan": 5878,
      "mengenal": 5879,
      "roulette": 5880,
      "highlight": 5881,
      "optimal": 5882,
      "turunkan": 5883,
      "kumpulan": 5884,
      "difficulty": 5885,
      "aowk": 5886,
      "ceno": 5887,
      "farmasi": 5888,
      "futsal": 5889,
      "flyx": 5890,
      "flyer": 5891,
      "longsor": 5892,
      "smart": 5893,
      "tumu": 5894,
      "tarif": 5895,
      "zombi": 5896,
      "alfamart": 5897,
      "direktur": 5898,
      "direktorat": 5899,
      "lirik": 5900,
      "peneliti": 5901,
      "memasang": 5902,
      "status": 5903,
      "eksplor": 5904,
      "chromechrome": 5905,
      "merespon": 5906,
      "edgeedge": 5907,
      "facewithsweat": 5908,
      "facewithhando": 5909,
      "muhammadi": 5910,
      "undefinedundefined": 5911,
      "flash": 5912,
      "floor": 5913,
      "klasik": 5914,
      "polygon": 5915,
      "roll": 5916,
      "dikonfirmasi": 5917,
      "pengisian": 5918,
      "pengiriman": 5919,
      "saweria": 5920,
      "agribisnis": 5921,
      "cosmo": 5922,
      "coblos": 5923,
      "coblosan": 5924,
      "masingmasing": 5925,
      "senilai": 5926,
      "kerjasama": 5927,
      "firefoxfirefox": 5928,
      "korupsi": 5929,
      "awoakawoak": 5930,
      "livestreaming": 5931,
      "bravo": 5932,
      "close": 5933,
      "further": 5934,
      "jepang": 5935,
      "miras": 5936,
      "rokok": 5937,
      "tolak": 5938,
      "tindak": 5939,
      "tentunya": 5940,
      "dipascolhok": 5941,
      "elinkaja": 5942,
      "apartemen": 5943,
      "pencairan": 5944,
      "check": 5945,
      "menghilangkan": 5946,
      "kayanya": 5947,
      "mantab": 5948,
      "merdeka": 5949,
      "ngelag": 5950,
      "question": 5951,
      "tradisional": 5952,
      "waspadai": 5953,
      "wordpresscom": 5954,
      "aisyah": 5955,
      "dbedes": 5956,
      "france": 5957,
      "iguazu": 5958,
      "korea": 5959,
      "mundur": 5960,
      "sendok": 5961,
      "tfgaming": 5962,
      "value": 5963,
      "analis": 5964,
      "dikenakan": 5965,
      "silakan": 5966,
      "menekan": 5967,
      "terlibat": 5968,
      "aporkan": 5969,
      "berkelanjutan": 5970,
      "praperadilan": 5971,
      "definisi": 5972,
      "sedihh": 5973,
      "meminta": 5974,
      "politik": 5975,
      "selebrasi": 5976,
      "seleramu": 5977,
      "channel": 5978,
      "loyalitas": 5979,
      "loudlycryingface": 5980,
      "saudi": 5981,
      "mengatasnamakan": 5982,
      "agustus": 5983,
      "targetkan": 5984,
      "mekanik": 5985,
      "massacre": 5986,
      "nostalgia": 5987,
      "thanks": 5988,
      "impian": 5989,
      "ngalahin": 5990,
      "untukmu": 5991,
      "menyamar": 5992,
      "hariku": 5993,
      "hijab": 5994,
      "konsisten": 5995,
      "multiplier": 5996,
      "jogjaku": 5997,
      "kokohoki": 5998,
      "persentase": 5999,
      "humaniora": 6000,
      "sustainable": 6001,
      "nanovest": 6002,
      "hyperspins": 6003,
      "leaderboard": 6004,
      "aurora": 6005,
      "bikesepeda": 6006,
      "btpn": 6007,
      "blitz": 6008,
      "california": 6009,
      "cenderung": 6010,
      "furnit": 6011,
      "ibnu": 6012,
      "kungfu": 6013,
      "nangis": 6014,
      "rule": 6015,
      "sbmptn": 6016,
      "tmepentaslotvip": 6017,
      "villarreal": 6018,
      "insentif": 6019,
      "indeks": 6020,
      "informatika": 6021,
      "amembawa": 6022,
      "aksanakan": 6023,
      "aksesibilitas": 6024,
      "dipengaruhi": 6025,
      "signifikan": 6026,
      "mendadak": 6027,
      "menantang": 6028,
      "terimakasih": 6029,
      "bergizi": 6030,
      "beruntun": 6031,
      "beritasatu": 6032,
      "bermunculan": 6033,
      "inggris": 6034,
      "perikanan": 6035,
      "isoiec": 6036,
      "sepele": 6037,
      "sekian": 6038,
      "segalanya": 6039,
      "sebagainya": 6040,
      "pencaharian": 6041,
      "membantumu": 6042,
      "memukau": 6043,
      "wavinghand": 6044,
      "kepulauan": 6045,
      "kegembiraan": 6046,
      "kesimpulan": 6047,
      "kehabisan": 6048,
      "kekayaan": 6049,
      "kehilangan": 6050,
      "kebudayaan": 6051,
      "keadilan": 6052,
      "ragnarok": 6053,
      "menghafal": 6054,
      "mengalahkan": 6055,
      "mengakibatkan": 6056,
      "menggiurkan": 6057,
      "mengumpulkan": 6058,
      "pembelajaran": 6059,
      "pengeluaran": 6060,
      "pengunjung": 6061,
      "serentak": 6062,
      "peternakan": 6063,
      "habilitasi": 6064,
      "ngeyel": 6065,
      "ngerjain": 6066,
      "ngeselin": 6067,
      "senantiasa": 6068,
      "pelaksanaan": 6069,
      "competiti": 6070,
      "community": 6071,
      "ipswich": 6072,
      "fiorentina": 6073,
      "gargantuar": 6074,
      "netanyahu": 6075,
      "bolasportcom": 6076,
      "txsevening": 6077,
      "otakudesu": 6078,
      "eksplorasi": 6079,
      "facewithhandovermouth": 6080,
      "muhammadiyah": 6081,
      "aud": 6082,
      "afi": 6083,
      "abayar": 6084,
      "aza": 6085,
      "ajuan": 6086,
      "abaya": 6087,
      "bsa": 6088,
      "bub": 6089,
      "bend": 6090,
      "bapa": 6091,
      "bgaming": 6092,
      "bgg": 6093,
      "bye": 6094,
      "basan": 6095,
      "bbin": 6096,
      "bbca": 6097,
      "bdian": 6098,
      "bender": 6099,
      "bspor": 6100,
      "cil": 6101,
      "cid": 6102,
      "cpot": 6103,
      "cika": 6104,
      "claim": 6105,
      "cted": 6106,
      "dd": 6107,
      "df": 6108,
      "dj": 6109,
      "dk": 6110,
      "dut": 6111,
      "dul": 6112,
      "dend": 6113,
      "dro": 6114,
      "dont": 6115,
      "daran": 6116,
      "dall": 6117,
      "dini": 6118,
      "dinya": 6119,
      "dkk": 6120,
      "dina": 6121,
      "dsini": 6122,
      "dbd": 6123,
      "eb": 6124,
      "eur": 6125,
      "eda": 6126,
      "egi": 6127,
      "eud": 6128,
      "edia": 6129,
      "egn": 6130,
      "edition": 6131,
      "ezu": 6132,
      "efootball": 6133,
      "ecast": 6134,
      "fs": 6135,
      "fat": 6136,
      "fem": 6137,
      "fun": 6138,
      "fom": 6139,
      "fis": 6140,
      "fra": 6141,
      "find": 6142,
      "fno": 6143,
      "font": 6144,
      "fall": 6145,
      "ffer": 6146,
      "fru": 6147,
      "fikasi": 6148,
      "fase": 6149,
      "fluk": 6150,
      "frist": 6151,
      "fgd": 6152,
      "feno": 6153,
      "fnaf": 6154,
      "gs": 6155,
      "gung": 6156,
      "gom": 6157,
      "gde": 6158,
      "gri": 6159,
      "gtu": 6160,
      "gres": 6161,
      "gand": 6162,
      "garan": 6163,
      "gation": 6164,
      "gcg": 6165,
      "gdg": 6166,
      "gatau": 6167,
      "ghost": 6168,
      "hb": 6169,
      "hm": 6170,
      "hn": 6171,
      "hom": 6172,
      "hur": 6173,
      "hol": 6174,
      "hend": 6175,
      "hili": 6176,
      "him": 6177,
      "hent": 6178,
      "hangat": 6179,
      "hype": 6180,
      "hlet": 6181,
      "hindari": 6182,
      "ib": 6183,
      "ion": 6184,
      "ior": 6185,
      "ica": 6186,
      "iapo": 6187,
      "jj": 6188,
      "jr": 6189,
      "jdi": 6190,
      "jun": 6191,
      "jet": 6192,
      "jung": 6193,
      "jil": 6194,
      "jama": 6195,
      "jend": 6196,
      "jata": 6197,
      "jara": 6198,
      "jng": 6199,
      "jangg": 6200,
      "jala": 6201,
      "jian": 6202,
      "joko": 6203,
      "kpr": 6204,
      "kuk": 6205,
      "kwk": 6206,
      "kud": 6207,
      "kpu": 6208,
      "khan": 6209,
      "kwe": 6210,
      "kbg": 6211,
      "kluar": 6212,
      "kru": 6213,
      "kakak": 6214,
      "ktri": 6215,
      "ksei": 6216,
      "lh": 6217,
      "lr": 6218,
      "lun": 6219,
      "lol": 6220,
      "lle": 6221,
      "lari": 6222,
      "laman": 6223,
      "late": 6224,
      "lgo": 6225,
      "lore": 6226,
      "lgn": 6227,
      "larang": 6228,
      "lantas": 6229,
      "map": 6230,
      "ming": 6231,
      "mba": 6232,
      "mut": 6233,
      "muk": 6234,
      "mikan": 6235,
      "mont": 6236,
      "mangat": 6237,
      "mbg": 6238,
      "mala": 6239,
      "mpah": 6240,
      "muse": 6241,
      "milih": 6242,
      "mill": 6243,
      "meks": 6244,
      "mxi": 6245,
      "mukul": 6246,
      "nh": 6247,
      "nari": 6248,
      "nir": 6249,
      "napa": 6250,
      "nuan": 6251,
      "nanya": 6252,
      "nsoft": 6253,
      "natar": 6254,
      "noti": 6255,
      "nologi": 6256,
      "nawal": 6257,
      "nation": 6258,
      "ntt": 6259,
      "nanjing": 6260,
      "oa": 6261,
      "ow": 6262,
      "oul": 6263,
      "ogo": 6264,
      "obet": 6265,
      "opp": 6266,
      "own": 6267,
      "ovasi": 6268,
      "oyal": 6269,
      "ocok": 6270,
      "ovol": 6271,
      "ocb": 6272,
      "obsi": 6273,
      "pj": 6274,
      "psi": 6275,
      "pit": 6276,
      "pum": 6277,
      "plu": 6278,
      "ppu": 6279,
      "papa": 6280,
      "pgn": 6281,
      "page": 6282,
      "pdah": 6283,
      "pdip": 6284,
      "rg": 6285,
      "rar": 6286,
      "rasi": 6287,
      "rsc": 6288,
      "renang": 6289,
      "ruu": 6290,
      "roti": 6291,
      "rss": 6292,
      "rele": 6293,
      "rika": 6294,
      "ringk": 6295,
      "rudahoki": 6296,
      "sl": 6297,
      "sang": 6298,
      "ske": 6299,
      "splay": 6300,
      "sch": 6301,
      "sne": 6302,
      "smu": 6303,
      "sham": 6304,
      "sapi": 6305,
      "singk": 6306,
      "slem": 6307,
      "shit": 6308,
      "swas": 6309,
      "sandal": 6310,
      "slast": 6311,
      "sastra": 6312,
      "sindikat": 6313,
      "school": 6314,
      "tdi": 6315,
      "tus": 6316,
      "tung": 6317,
      "tul": 6318,
      "taman": 6319,
      "tko": 6320,
      "tpa": 6321,
      "tdr": 6322,
      "tapi": 6323,
      "tinja": 6324,
      "tandan": 6325,
      "uf": 6326,
      "uber": 6327,
      "uma": 6328,
      "uga": 6329,
      "usia": 6330,
      "uasa": 6331,
      "ucky": 6332,
      "ugm": 6333,
      "ucap": 6334,
      "vr": 6335,
      "vst": 6336,
      "vsp": 6337,
      "vvip": 6338,
      "vratu": 6339,
      "wj": 6340,
      "wl": 6341,
      "wir": 6342,
      "wong": 6343,
      "wall": 6344,
      "whi": 6345,
      "wenang": 6346,
      "wbl": 6347,
      "wasan": 6348,
      "when": 6349,
      "wika": 6350,
      "wamen": 6351,
      "whis": 6352,
      "woman": 6353,
      "xdun": 6354,
      "xpukul": 6355,
      "yt": 6356,
      "yen": 6357,
      "yun": 6358,
      "yes": 6359,
      "yani": 6360,
      "ygra": 6361,
      "yahaha": 6362,
      "zah": 6363,
      "zing": 6364,
      "zil": 6365,
      "zone": 6366,
      "zation": 6367,
      "antr": 6368,
      "anali": 6369,
      "aneka": 6370,
      "erat": 6371,
      "eron": 6372,
      "erma": 6373,
      "erup": 6374,
      "erone": 6375,
      "erate": 6376,
      "erhan": 6377,
      "erai": 6378,
      "ercis": 6379,
      "inc": 6380,
      "iner": 6381,
      "inti": 6382,
      "intu": 6383,
      "intel": 6384,
      "inew": 6385,
      "inance": 6386,
      "inary": 6387,
      "inbox": 6388,
      "including": 6389,
      "inews": 6390,
      "eny": 6391,
      "ening": 6392,
      "enis": 6393,
      "eneng": 6394,
      "enni": 6395,
      "ensial": 6396,
      "enial": 6397,
      "enextspin": 6398,
      "arn": 6399,
      "aro": 6400,
      "arus": 6401,
      "arnya": 6402,
      "armu": 6403,
      "arth": 6404,
      "arjana": 6405,
      "arcane": 6406,
      "arasu": 6407,
      "atang": 6408,
      "atam": 6409,
      "atap": 6410,
      "athan": 6411,
      "atment": 6412,
      "atera": 6413,
      "atunya": 6414,
      "athlet": 6415,
      "asin": 6416,
      "asang": 6417,
      "asus": 6418,
      "asur": 6419,
      "asino": 6420,
      "asana": 6421,
      "asset": 6422,
      "astic": 6423,
      "angsing": 6424,
      "aly": 6425,
      "alber": 6426,
      "alok": 6427,
      "alikan": 6428,
      "alod": 6429,
      "always": 6430,
      "alink": 6431,
      "amik": 6432,
      "amis": 6433,
      "amatkan": 6434,
      "ampa": 6435,
      "ambal": 6436,
      "ampil": 6437,
      "ambling": 6438,
      "amster": 6439,
      "aken": 6440,
      "aktu": 6441,
      "akwk": 6442,
      "akunt": 6443,
      "akuan": 6444,
      "akhi": 6445,
      "akip": 6446,
      "akwo": 6447,
      "aksum": 6448,
      "ahu": 6449,
      "ahaman": 6450,
      "ahanan": 6451,
      "ahmad": 6452,
      "emg": 6453,
      "emu": 6454,
      "emap": 6455,
      "emis": 6456,
      "emuan": 6457,
      "empang": 6458,
      "emary": 6459,
      "emosi": 6460,
      "onasi": 6461,
      "onic": 6462,
      "onsoft": 6463,
      "onumber": 6464,
      "onsor": 6465,
      "did": 6466,
      "diy": 6467,
      "diam": 6468,
      "dion": 6469,
      "dila": 6470,
      "diga": 6471,
      "diti": 6472,
      "dira": 6473,
      "dice": 6474,
      "diha": 6475,
      "ditem": 6476,
      "disitus": 6477,
      "dibantu": 6478,
      "diset": 6479,
      "dibal": 6480,
      "dimar": 6481,
      "dilihat": 6482,
      "dirumah": 6483,
      "diterima": 6484,
      "didewadra": 6485,
      "diperlu": 6486,
      "dianc": 6487,
      "dibawa": 6488,
      "dipakai": 6489,
      "diundang": 6490,
      "dimainin": 6491,
      "diikuti": 6492,
      "dijaga": 6493,
      "ditemukan": 6494,
      "dirasakan": 6495,
      "diamon": 6496,
      "diminta": 6497,
      "ditahan": 6498,
      "dibagikan": 6499,
      "disertifikasi": 6500,
      "diuji": 6501,
      "dikira": 6502,
      "diketahui": 6503,
      "didewadratuh": 6504,
      "dibutuhkan": 6505,
      "dikembangkan": 6506,
      "diketawain": 6507,
      "differ": 6508,
      "unc": 6509,
      "untu": 6510,
      "unch": 6511,
      "undian": 6512,
      "sid": 6513,
      "siot": 6514,
      "sipil": 6515,
      "siologi": 6516,
      "sivitas": 6517,
      "size": 6518,
      "ela": 6519,
      "elm": 6520,
      "ely": 6521,
      "elan": 6522,
      "else": 6523,
      "eluk": 6524,
      "eless": 6525,
      "elax": 6526,
      "orer": 6527,
      "ores": 6528,
      "orng": 6529,
      "order": 6530,
      "orogo": 6531,
      "menik": 6532,
      "menta": 6533,
      "menco": 6534,
      "mendatang": 6535,
      "menjalan": 6536,
      "menjawab": 6537,
      "mencur": 6538,
      "mensos": 6539,
      "mendag": 6540,
      "menutup": 6541,
      "mendengar": 6542,
      "menandingi": 6543,
      "meniru": 6544,
      "mencakup": 6545,
      "mencetak": 6546,
      "mencoblos": 6547,
      "ikkan": 6548,
      "ikatan": 6549,
      "ikkk": 6550,
      "tera": 6551,
      "terti": 6552,
      "teraman": 6553,
      "terend": 6554,
      "terperca": 6555,
      "terlihat": 6556,
      "terpilih": 6557,
      "terpusat": 6558,
      "terisi": 6559,
      "terunggul": 6560,
      "terpad": 6561,
      "ternyaman": 6562,
      "tersik": 6563,
      "terjaga": 6564,
      "terkena": 6565,
      "tersakit": 6566,
      "tercinta": 6567,
      "terverifikasi": 6568,
      "terjadinya": 6569,
      "terdampak": 6570,
      "tergantung": 6571,
      "terdekat": 6572,
      "tersambung": 6573,
      "terjerat": 6574,
      "tercatat": 6575,
      "yaudah": 6576,
      "yaelah": 6577,
      "otw": 6578,
      "otan": 6579,
      "otto": 6580,
      "ape": 6581,
      "apen": 6582,
      "apah": 6583,
      "apel": 6584,
      "apalah": 6585,
      "appp": 6586,
      "apinya": 6587,
      "aptop": 6588,
      "aporan": 6589,
      "aptasi": 6590,
      "apresi": 6591,
      "apasang": 6592,
      "berma": 6593,
      "berkan": 6594,
      "berdo": 6595,
      "bertah": 6596,
      "berlangsung": 6597,
      "bered": 6598,
      "berani": 6599,
      "berbayar": 6600,
      "bermodal": 6601,
      "bersemangat": 6602,
      "berinovasi": 6603,
      "bertambah": 6604,
      "bersenang": 6605,
      "bervariasi": 6606,
      "bertujuan": 6607,
      "bertahan": 6608,
      "berpindah": 6609,
      "bertukar": 6610,
      "berperan": 6611,
      "bertugas": 6612,
      "berwarna": 6613,
      "berpikir": 6614,
      "bergerak": 6615,
      "bersantai": 6616,
      "berusaha": 6617,
      "berkolaborasi": 6618,
      "bergantung": 6619,
      "berburu": 6620,
      "berinteraksi": 6621,
      "berhatihati": 6622,
      "berumur": 6623,
      "berbicara": 6624,
      "bermakna": 6625,
      "berkesan": 6626,
      "bersamasama": 6627,
      "berwenang": 6628,
      "etan": 6629,
      "etto": 6630,
      "etic": 6631,
      "etapkan": 6632,
      "ethere": 6633,
      "etoot": 6634,
      "esk": 6635,
      "esl": 6636,
      "esok": 6637,
      "esup": 6638,
      "esta": 6639,
      "esua": 6640,
      "essen": 6641,
      "espay": 6642,
      "espersons": 6643,
      "lad": 6644,
      "law": 6645,
      "labi": 6646,
      "lawe": 6647,
      "lawak": 6648,
      "laund": 6649,
      "lautan": 6650,
      "lagunya": 6651,
      "launch": 6652,
      "maut": 6653,
      "mada": 6654,
      "magi": 6655,
      "madr": 6656,
      "majel": 6657,
      "magelang": 6658,
      "inga": 6659,
      "ings": 6660,
      "ingga": 6661,
      "ingfac": 6662,
      "ingambling": 6663,
      "usa": 6664,
      "ush": 6665,
      "ussia": 6666,
      "usdownload": 6667,
      "ustrasi": 6668,
      "ustration": 6669,
      "usatunya": 6670,
      "kanal": 6671,
      "kanop": 6672,
      "kantong": 6673,
      "lia": 6674,
      "lic": 6675,
      "lif": 6676,
      "liur": 6677,
      "liari": 6678,
      "lita": 6679,
      "limo": 6680,
      "lisan": 6681,
      "liran": 6682,
      "licen": 6683,
      "liandi": 6684,
      "lille": 6685,
      "perma": 6686,
      "peril": 6687,
      "persel": 6688,
      "perju": 6689,
      "perasa": 6690,
      "perdana": 6691,
      "perkalian": 6692,
      "persis": 6693,
      "peristi": 6694,
      "perhumas": 6695,
      "persiapkan": 6696,
      "pergerakan": 6697,
      "pertahankan": 6698,
      "perhatikan": 6699,
      "perbuatan": 6700,
      "persiapan": 6701,
      "gais": 6702,
      "gabah": 6703,
      "gaji": 6704,
      "gabisa": 6705,
      "itanya": 6706,
      "itual": 6707,
      "itraan": 6708,
      "itanggung": 6709,
      "itarmu": 6710,
      "bangkok": 6711,
      "ungutan": 6712,
      "omg": 6713,
      "omid": 6714,
      "omong": 6715,
      "ompok": 6716,
      "asiun": 6717,
      "urut": 6718,
      "urangan": 6719,
      "prat": 6720,
      "prol": 6721,
      "pric": 6722,
      "prabayar": 6723,
      "prnh": 6724,
      "isme": 6725,
      "isaku": 6726,
      "istrasi": 6727,
      "isahkan": 6728,
      "ded": 6729,
      "dep": 6730,
      "deve": 6731,
      "deket": 6732,
      "degaming": 6733,
      "debat": 6734,
      "defe": 6735,
      "depresi": 6736,
      "devie": 6737,
      "degde": 6738,
      "bao": 6739,
      "baut": 6740,
      "bada": 6741,
      "bawas": 6742,
      "jagan": 6743,
      "jacpot": 6744,
      "gamet": 6745,
      "gamau": 6746,
      "gamble": 6747,
      "sed": 6748,
      "sey": 6749,
      "sepul": 6750,
      "sejam": 6751,
      "secon": 6752,
      "seph": 6753,
      "sepenuh": 6754,
      "sebagaimana": 6755,
      "sekuat": 6756,
      "seoul": 6757,
      "mainlucky": 6758,
      "mainfortune": 6759,
      "tie": 6760,
      "tiong": 6761,
      "tipe": 6762,
      "tianak": 6763,
      "tiago": 6764,
      "rekam": 6765,
      "reevo": 6766,
      "refres": 6767,
      "rehabilitasi": 6768,
      "okt": 6769,
      "okter": 6770,
      "okto": 6771,
      "okwok": 6772,
      "okrasi": 6773,
      "penta": 6774,
      "penyak": 6775,
      "penjel": 6776,
      "pendukung": 6777,
      "penden": 6778,
      "pendorong": 6779,
      "penjuru": 6780,
      "peningkatan": 6781,
      "pencapaian": 6782,
      "pencoblosan": 6783,
      "penjara": 6784,
      "penemuan": 6785,
      "memakan": 6786,
      "memprioritas": 6787,
      "memverifikasi": 6788,
      "memfasi": 6789,
      "membutuhkan": 6790,
      "membahas": 6791,
      "membatalkan": 6792,
      "memblokir": 6793,
      "memeluk": 6794,
      "wag": 6795,
      "wabah": 6796,
      "waggy": 6797,
      "waalaikum": 6798,
      "waist": 6799,
      "kebo": 6800,
      "kebe": 6801,
      "kejam": 6802,
      "kepri": 6803,
      "ketersedia": 6804,
      "keham": 6805,
      "kejen": 6806,
      "kepun": 6807,
      "kekini": 6808,
      "kebersama": 6809,
      "kewallet": 6810,
      "keada": 6811,
      "keahli": 6812,
      "kebaikan": 6813,
      "kepencet": 6814,
      "kevin": 6815,
      "keburu": 6816,
      "keperawatan": 6817,
      "kebaya": 6818,
      "kebesaran": 6819,
      "keindahan": 6820,
      "kebayang": 6821,
      "kehancur": 6822,
      "ull": 6823,
      "ult": 6824,
      "ulah": 6825,
      "banya": 6826,
      "banban": 6827,
      "bansos": 6828,
      "bankewallet": 6829,
      "ols": 6830,
      "olan": 6831,
      "olong": 6832,
      "olucky": 6833,
      "ilang": 6834,
      "ilmi": 6835,
      "ilusi": 6836,
      "ilmun": 6837,
      "ilotto": 6838,
      "ilustrasi": 6839,
      "ukm": 6840,
      "ukir": 6841,
      "ste": 6842,
      "stok": 6843,
      "stra": 6844,
      "student": 6845,
      "stasiun": 6846,
      "ric": 6847,
      "ribut": 6848,
      "riau": 6849,
      "daak": 6850,
      "daebak": 6851,
      "lotsports": 6852,
      "ume": 6853,
      "umo": 6854,
      "umat": 6855,
      "umah": 6856,
      "umro": 6857,
      "umbuk": 6858,
      "gameimg": 6859,
      "gamegb": 6860,
      "gameqqthai": 6861,
      "lea": 6862,
      "lek": 6863,
      "lecan": 6864,
      "lebihan": 6865,
      "ledakan": 6866,
      "legit": 6867,
      "leganes": 6868,
      "learn": 6869,
      "rach": 6870,
      "rayo": 6871,
      "rawan": 6872,
      "ravel": 6873,
      "bidik": 6874,
      "bibir": 6875,
      "bianto": 6876,
      "indos": 6877,
      "ekr": 6878,
      "ekat": 6879,
      "ekom": 6880,
      "eksa": 6881,
      "ektp": 6882,
      "eknologi": 6883,
      "ekings": 6884,
      "ekstra": 6885,
      "pob": 6886,
      "popok": 6887,
      "gibran": 6888,
      "gigit": 6889,
      "giliran": 6890,
      "tulis": 6891,
      "tubun": 6892,
      "tuatif": 6893,
      "tulisan": 6894,
      "slotter": 6895,
      "slotog": 6896,
      "slotevent": 6897,
      "slotsegera": 6898,
      "slotnetent": 6899,
      "slotawc": 6900,
      "playn": 6901,
      "playsub": 6902,
      "playhomehot": 6903,
      "playkoi": 6904,
      "playson": 6905,
      "playcaishens": 6906,
      "ative": 6907,
      "upkan": 6908,
      "updat": 6909,
      "upgra": 6910,
      "upacara": 6911,
      "amad": 6912,
      "amaga": 6913,
      "amazing": 6914,
      "sela": 6915,
      "selaku": 6916,
      "selfi": 6917,
      "selund": 6918,
      "seluler": 6919,
      "selempang": 6920,
      "idx": 6921,
      "ident": 6922,
      "idana": 6923,
      "uhnya": 6924,
      "uhhh": 6925,
      "chaw": 6926,
      "chic": 6927,
      "chile": 6928,
      "udung": 6929,
      "udetto": 6930,
      "look": 6931,
      "lohh": 6932,
      "lobby": 6933,
      "barus": 6934,
      "baris": 6935,
      "sad": 6936,
      "say": 6937,
      "sain": 6938,
      "saing": 6939,
      "saver": 6940,
      "sawit": 6941,
      "safe": 6942,
      "taun": 6943,
      "tawa": 6944,
      "tabel": 6945,
      "tadv": 6946,
      "tabrak": 6947,
      "tadinya": 6948,
      "spi": 6949,
      "span": 6950,
      "spam": 6951,
      "spur": 6952,
      "spek": 6953,
      "spoker": 6954,
      "spee": 6955,
      "spgsoft": 6956,
      "spindra": 6957,
      "sponsor": 6958,
      "irkan": 6959,
      "linya": 6960,
      "mengur": 6961,
      "menghabis": 6962,
      "mengunduh": 6963,
      "menghemat": 6964,
      "mengingat": 6965,
      "menghubung": 6966,
      "menginginkan": 6967,
      "mengelu": 6968,
      "menganggap": 6969,
      "menggelar": 6970,
      "menginspirasi": 6971,
      "menghitung": 6972,
      "mengintegrasikan": 6973,
      "mengandalkan": 6974,
      "mengunjungi": 6975,
      "mengocok": 6976,
      "menguasa": 6977,
      "tro": 6978,
      "trap": 6979,
      "cewe": 6980,
      "cepet": 6981,
      "agung": 6982,
      "dog": 6983,
      "dos": 6984,
      "domain": 6985,
      "doub": 6986,
      "doyan": 6987,
      "ubobet": 6988,
      "cks": 6989,
      "cket": 6990,
      "ckup": 6991,
      "ofisi": 6992,
      "ofishing": 6993,
      "kalender": 6994,
      "kalkul": 6995,
      "amanah": 6996,
      "veus": 6997,
      "vepersons": 6998,
      "boy": 6999,
      "boot": 7000,
      "boja": 7001,
      "bodia": 7002,
      "booming": 7003,
      "coy": 7004,
      "coli": 7005,
      "copot": 7006,
      "cowok": 7007,
      "counter": 7008,
      "cabe": 7009,
      "caccess": 7010,
      "sitelogo": 7011,
      "sitemap": 7012,
      "bug": 7013,
      "buil": 7014,
      "pemas": 7015,
      "pemak": 7016,
      "pemakan": 7017,
      "pembah": 7018,
      "pembuk": 7019,
      "pemindahan": 7020,
      "pemahaman": 7021,
      "pemungutan": 7022,
      "kai": 7023,
      "kaos": 7024,
      "kayang": 7025,
      "kabinet": 7026,
      "kawasan": 7027,
      "manan": 7028,
      "mante": 7029,
      "manage": 7030,
      "mantan": 7031,
      "manual": 7032,
      "mancane": 7033,
      "endalikan": 7034,
      "semi": 7035,
      "sempit": 7036,
      "semesta": 7037,
      "adm": 7038,
      "adu": 7039,
      "adan": 7040,
      "adat": 7041,
      "aduk": 7042,
      "adapi": 7043,
      "adaptasi": 7044,
      "luang": 7045,
      "luke": 7046,
      "meh": 7047,
      "medis": 7048,
      "mecah": 7049,
      "too": 7050,
      "toli": 7051,
      "tool": 7052,
      "penge": 7053,
      "pengali": 7054,
      "pengaturan": 7055,
      "penggerak": 7056,
      "penghianat": 7057,
      "pengakuan": 7058,
      "onevol": 7059,
      "serang": 7060,
      "serak": 7061,
      "serut": 7062,
      "serum": 7063,
      "serbu": 7064,
      "servi": 7065,
      "serasa": 7066,
      "serikat": 7067,
      "masak": 7068,
      "massal": 7069,
      "masade": 7070,
      "casarjana": 7071,
      "pekan": 7072,
      "peop": 7073,
      "peace": 7074,
      "baruuu": 7075,
      "neo": 7076,
      "nesian": 7077,
      "ataupun": 7078,
      "koe": 7079,
      "koo": 7080,
      "kopi": 7081,
      "kosong": 7082,
      "juga": 7083,
      "juanda": 7084,
      "puasa": 7085,
      "puji": 7086,
      "pucuk": 7087,
      "hawk": 7088,
      "have": 7089,
      "hayo": 7090,
      "prov": 7091,
      "progam": 7092,
      "provide": 7093,
      "progres": 7094,
      "roam": 7095,
      "roit": 7096,
      "roug": 7097,
      "muatan": 7098,
      "mulain": 7099,
      "musim": 7100,
      "musik": 7101,
      "mulir": 7102,
      "ketimbang": 7103,
      "ketukar": 7104,
      "ketahanan": 7105,
      "ilihan": 7106,
      "ilipp": 7107,
      "merau": 7108,
      "keman": 7109,
      "kemasan": 7110,
      "kemeja": 7111,
      "kemajuan": 7112,
      "kemitraan": 7113,
      "jadian": 7114,
      "wkwkwkwkwk": 7115,
      "wkwkwkwkw": 7116,
      "viprefer": 7117,
      "force": 7118,
      "forgot": 7119,
      "forecast": 7120,
      "formulir": 7121,
      "nooo": 7122,
      "than": 7123,
      "thumb": 7124,
      "theme": 7125,
      "throug": 7126,
      "ayat": 7127,
      "kapol": 7128,
      "kapten": 7129,
      "rest": 7130,
      "resta": 7131,
      "respek": 7132,
      "resear": 7133,
      "apaa": 7134,
      "apaapa": 7135,
      "andung": 7136,
      "andalan": 7137,
      "andaslot": 7138,
      "andonasi": 7139,
      "imah": 7140,
      "imut": 7141,
      "impan": 7142,
      "impa": 7143,
      "impor": 7144,
      "imbangan": 7145,
      "most": 7146,
      "mouse": 7147,
      "model": 7148,
      "mockup": 7149,
      "baikid": 7150,
      "ngk": 7151,
      "ngat": 7152,
      "ngasal": 7153,
      "ngobrol": 7154,
      "casinoag": 7155,
      "casinobg": 7156,
      "casinosub": 7157,
      "casinosegera": 7158,
      "casinoafb": 7159,
      "casinoopus": 7160,
      "casinoevo": 7161,
      "casinoyeebet": 7162,
      "casinogp": 7163,
      "casinoslotfishing": 7164,
      "awokwok": 7165,
      "hantu": 7166,
      "hantam": 7167,
      "hanyalah": 7168,
      "melulu": 7169,
      "melacak": 7170,
      "melompat": 7171,
      "melaporkan": 7172,
      "melaksanakan": 7173,
      "melekat": 7174,
      "ental": 7175,
      "fajar": 7176,
      "goonsoft": 7177,
      "tegas": 7178,
      "tegang": 7179,
      "tewas": 7180,
      "tegur": 7181,
      "matix": 7182,
      "permainanpermainan": 7183,
      "pasti": 7184,
      "pasangan": 7185,
      "pasukan": 7186,
      "pasrah": 7187,
      "paspor": 7188,
      "pascasarjana": 7189,
      "beserta": 7190,
      "senjata": 7191,
      "hotline": 7192,
      "hothot": 7193,
      "hotcsport": 7194,
      "hotqqken": 7195,
      "hotcategoryicon": 7196,
      "hotyg": 7197,
      "hotspur": 7198,
      "winning": 7199,
      "winstreak": 7200,
      "pelan": 7201,
      "pelih": 7202,
      "pelaku": 7203,
      "pelop": 7204,
      "peliharaan": 7205,
      "pelangsing": 7206,
      "pelaporan": 7207,
      "untahun": 7208,
      "pusdat": 7209,
      "memberantas": 7210,
      "bettor": 7211,
      "betumbuk": 7212,
      "eropa": 7213,
      "icont": 7214,
      "dragoonsoft": 7215,
      "wear": 7216,
      "wewe": 7217,
      "houst": 7218,
      "hood": 7219,
      "hosana": 7220,
      "hoshi": 7221,
      "beban": 7222,
      "behh": 7223,
      "begit": 7224,
      "beij": 7225,
      "beberkan": 7226,
      "menyal": 7227,
      "menyes": 7228,
      "menyed": 7229,
      "menyerang": 7230,
      "menyusuri": 7231,
      "panin": 7232,
      "panda": 7233,
      "pancing": 7234,
      "panorama": 7235,
      "bela": 7236,
      "belom": 7237,
      "buruk": 7238,
      "burhan": 7239,
      "buronan": 7240,
      "langit": 7241,
      "allstat": 7242,
      "grap": 7243,
      "grha": 7244,
      "grelax": 7245,
      "gula": 7246,
      "nyaris": 7247,
      "gamingg": 7248,
      "gamingsa": 7249,
      "gamingog": 7250,
      "gamingjoker": 7251,
      "gamingasia": 7252,
      "gamingspade": 7253,
      "gamingcq": 7254,
      "gamingsexy": 7255,
      "gamingafb": 7256,
      "gamingskywind": 7257,
      "gamingdream": 7258,
      "banklogo": 7259,
      "banksignalbank": 7260,
      "bihi": 7261,
      "kompar": 7262,
      "mining": 7263,
      "minati": 7264,
      "minuman": 7265,
      "sesat": 7266,
      "seseru": 7267,
      "gunaan": 7268,
      "jamur": 7269,
      "jambi": 7270,
      "formal": 7271,
      "bahak": 7272,
      "wayang": 7273,
      "waysm": 7274,
      "wayspgsoft": 7275,
      "karet": 7276,
      "karma": 7277,
      "bgn": 7278,
      "bgsi": 7279,
      "bgtt": 7280,
      "diajak": 7281,
      "iniah": 7282,
      "prima": 7283,
      "prize": 7284,
      "bonusnya": 7285,
      "benak": 7286,
      "benda": 7287,
      "terbaiknya": 7288,
      "ppp": 7289,
      "soon": 7290,
      "sopan": 7291,
      "sound": 7292,
      "south": 7293,
      "sosiologi": 7294,
      "ainya": 7295,
      "uana": 7296,
      "sportwsport": 7297,
      "kering": 7298,
      "kertas": 7299,
      "keringat": 7300,
      "kerbaut": 7301,
      "kerudung": 7302,
      "menanggul": 7303,
      "antis": 7304,
      "antasan": 7305,
      "bayan": 7306,
      "bayarkan": 7307,
      "promopromo": 7308,
      "promoviprefer": 7309,
      "lahh": 7310,
      "plan": 7311,
      "plant": 7312,
      "plast": 7313,
      "plank": 7314,
      "keli": 7315,
      "kelapa": 7316,
      "kelompok": 7317,
      "syah": 7318,
      "sakuku": 7319,
      "cominv": 7320,
      "semuaaa": 7321,
      "suit": 7322,
      "sugar": 7323,
      "suami": 7324,
      "sugeng": 7325,
      "suaranya": 7326,
      "suarasu": 7327,
      "suasana": 7328,
      "sulawe": 7329,
      "subianto": 7330,
      "tahapan": 7331,
      "mahir": 7332,
      "mahwbl": 7333,
      "pai": 7334,
      "pau": 7335,
      "paul": 7336,
      "pabr": 7337,
      "padegaming": 7338,
      "jutawan": 7339,
      "arkannya": 7340,
      "akuu": 7341,
      "akuuu": 7342,
      "scale": 7343,
      "scene": 7344,
      "scudetto": 7345,
      "windahhh": 7346,
      "downfall": 7347,
      "epak": 7348,
      "geda": 7349,
      "gejala": 7350,
      "gegabah": 7351,
      "geofisi": 7352,
      "apple": 7353,
      "appstore": 7354,
      "deposito": 7355,
      "harta": 7356,
      "harbol": 7357,
      "liked": 7358,
      "evemary": 7359,
      "hiak": 7360,
      "hiasan": 7361,
      "reza": 7362,
      "kenyang": 7363,
      "nail": 7364,
      "ipar": 7365,
      "ipis": 7366,
      "ipad": 7367,
      "ipbun": 7368,
      "jake": 7369,
      "landeve": 7370,
      "micha": 7371,
      "lainny": 7372,
      "cobaan": 7373,
      "ajaib": 7374,
      "foya": 7375,
      "focus": 7376,
      "folio": 7377,
      "thew": 7378,
      "their": 7379,
      "thecrypt": 7380,
      "orangnya": 7381,
      "timor": 7382,
      "timing": 7383,
      "timbangkan": 7384,
      "timsportwsport": 7385,
      "bilek": 7386,
      "biller": 7387,
      "bilbao": 7388,
      "fere": 7389,
      "edc": 7390,
      "pakainya": 7391,
      "ukai": 7392,
      "imadud": 7393,
      "images": 7394,
      "telp": 7395,
      "telinga": 7396,
      "fix": 7397,
      "fier": 7398,
      "five": 7399,
      "pragmatix": 7400,
      "maticpolygon": 7401,
      "access": 7402,
      "actor": 7403,
      "accept": 7404,
      "ported": 7405,
      "tpg": 7406,
      "layanannya": 7407,
      "konek": 7408,
      "konsul": 7409,
      "kontrol": 7410,
      "qqnumber": 7411,
      "qqilotto": 7412,
      "totten": 7413,
      "kalahh": 7414,
      "kalahkan": 7415,
      "manajer": 7416,
      "manajemen": 7417,
      "wakaf": 7418,
      "waktun": 7419,
      "waktum": 7420,
      "undred": 7421,
      "spinevent": 7422,
      "spinner": 7423,
      "downloadandro": 7424,
      "seti": 7425,
      "setting": 7426,
      "setempat": 7427,
      "setahun": 7428,
      "setipis": 7429,
      "kie": 7430,
      "kipas": 7431,
      "kiemas": 7432,
      "nie": 7433,
      "niah": 7434,
      "nontonnya": 7435,
      "payout": 7436,
      "paytren": 7437,
      "payudara": 7438,
      "paylater": 7439,
      "teruss": 7440,
      "aflagimg": 7441,
      "affili": 7442,
      "afashion": 7443,
      "dirilis": 7444,
      "cuci": 7445,
      "dewadorbikin": 7446,
      "dewadormenawarkan": 7447,
      "dewadoramenawarkan": 7448,
      "dewadoramembawa": 7449,
      "jackpotnya": 7450,
      "jackpotfortune": 7451,
      "jackpotjili": 7452,
      "caromid": 7453,
      "santiago": 7454,
      "aaa": 7455,
      "balas": 7456,
      "balinya": 7457,
      "balian": 7458,
      "katakata": 7459,
      "seruuu": 7460,
      "brah": 7461,
      "branding": 7462,
      "colll": 7463,
      "nowroyale": 7464,
      "fishevent": 7465,
      "fishjoker": 7466,
      "fishcq": 7467,
      "fishhotqqken": 7468,
      "heist": 7469,
      "kampot": 7470,
      "kamboja": 7471,
      "palsu": 7472,
      "petani": 7473,
      "yey": 7474,
      "dison": 7475,
      "disana": 7476,
      "disukai": 7477,
      "kemenanganmu": 7478,
      "ajh": 7479,
      "ajang": 7480,
      "batal": 7481,
      "batik": 7482,
      "batch": 7483,
      "baterai": 7484,
      "batiniah": 7485,
      "detroit": 7486,
      "malang": 7487,
      "malem": 7488,
      "john": 7489,
      "joseph": 7490,
      "ahahahah": 7491,
      "ahahahaha": 7492,
      "litasi": 7493,
      "pokeresports": 7494,
      "ditan": 7495,
      "ditjen": 7496,
      "ditutup": 7497,
      "ditukar": 7498,
      "ditangkap": 7499,
      "ditetapkan": 7500,
      "saluran": 7501,
      "darah": 7502,
      "daritanggung": 7503,
      "crush": 7504,
      "kontan": 7505,
      "interwin": 7506,
      "interior": 7507,
      "interfere": 7508,
      "ctory": 7509,
      "maru": 7510,
      "marak": 7511,
      "marni": 7512,
      "menujl": 7513,
      "menujili": 7514,
      "menufastspin": 7515,
      "menucg": 7516,
      "bookmark": 7517,
      "bulu": 7518,
      "bulutang": 7519,
      "bulaksum": 7520,
      "soflagimg": 7521,
      "softpg": 7522,
      "promosiwelcome": 7523,
      "herc": 7524,
      "produktivitas": 7525,
      "gempa": 7526,
      "olympusgates": 7527,
      "olympuspragmaticplaymahjong": 7528,
      "blem": 7529,
      "blong": 7530,
      "blunder": 7531,
      "mulus": 7532,
      "mulut": 7533,
      "voice": 7534,
      "topi": 7535,
      "topgsoft": 7536,
      "bakar": 7537,
      "bakso": 7538,
      "bakalan": 7539,
      "deras": 7540,
      "softsub": 7541,
      "softwar": 7542,
      "drome": 7543,
      "drasil": 7544,
      "dramaga": 7545,
      "hhhhh": 7546,
      "pahlawan": 7547,
      "tamu": 7548,
      "tampak": 7549,
      "woii": 7550,
      "atured": 7551,
      "struck": 7552,
      "luckystreak": 7553,
      "penggunakata": 7554,
      "untungnya": 7555,
      "menyebarkan": 7556,
      "eventpragmatic": 7557,
      "eventmicrogaming": 7558,
      "eventpng": 7559,
      "ciri": 7560,
      "ciee": 7561,
      "skb": 7562,
      "anies": 7563,
      "linktree": 7564,
      "pertamaa": 7565,
      "olahragacr": 7566,
      "jejak": 7567,
      "jebol": 7568,
      "jeepe": 7569,
      "jebakan": 7570,
      "kkkkk": 7571,
      "pilot": 7572,
      "pilgub": 7573,
      "smk": 7574,
      "smp": 7575,
      "smkn": 7576,
      "smicrogaming": 7577,
      "torino": 7578,
      "torial": 7579,
      "detiksum": 7580,
      "pond": 7581,
      "ponakan": 7582,
      "ponorogo": 7583,
      "pontianak": 7584,
      "diluncurkan": 7585,
      "quotgg": 7586,
      "quotwah": 7587,
      "quotsavage": 7588,
      "quotlawan": 7589,
      "quotgila": 7590,
      "quotmoment": 7591,
      "quotgameplay": 7592,
      "fintek": 7593,
      "fintech": 7594,
      "finally": 7595,
      "galang": 7596,
      "hamil": 7597,
      "mobilnya": 7598,
      "mobilmobil": 7599,
      "gramedia": 7600,
      "expert": 7601,
      "extra": 7602,
      "excel": 7603,
      "exercis": 7604,
      "garu": 7605,
      "koklea": 7606,
      "oppo": 7607,
      "opologi": 7608,
      "opgsoft": 7609,
      "ustasi": 7610,
      "webinar": 7611,
      "websitelogo": 7612,
      "author": 7613,
      "duper": 7614,
      "sure": 7615,
      "surabaya": 7616,
      "kecurangan": 7617,
      "hidupkan": 7618,
      "ehin": 7619,
      "jpy": 7620,
      "sgd": 7621,
      "sgnexus": 7622,
      "sghothot": 7623,
      "tise": 7624,
      "tisu": 7625,
      "tekno": 7626,
      "were": 7627,
      "warsa": 7628,
      "amide": 7629,
      "siapin": 7630,
      "orida": 7631,
      "oriental": 7632,
      "bolabola": 7633,
      "ortunity": 7634,
      "pie": 7635,
      "piri": 7636,
      "pipa": 7637,
      "fortunenextspin": 7638,
      "jenuh": 7639,
      "jirr": 7640,
      "mater": 7641,
      "matthew": 7642,
      "metric": 7643,
      "makannya": 7644,
      "pgl": 7645,
      "maenn": 7646,
      "prinsip": 7647,
      "sekalian": 7648,
      "kerenn": 7649,
      "kerennn": 7650,
      "jarin": 7651,
      "jarak": 7652,
      "bunsin": 7653,
      "brooo": 7654,
      "feel": 7655,
      "fect": 7656,
      "featured": 7657,
      "isihan": 7658,
      "jumbo": 7659,
      "jumpsc": 7660,
      "laper": 7661,
      "lapak": 7662,
      "philipp": 7663,
      "ruah": 7664,
      "ruangan": 7665,
      "lightning": 7666,
      "transjawa": 7667,
      "daster": 7668,
      "jivin": 7669,
      "jalannya": 7670,
      "jalanjalan": 7671,
      "idnpermainan": 7672,
      "lanjutxbet": 7673,
      "fortunecleopatras": 7674,
      "dewdoramenyediakan": 7675,
      "jokersub": 7676,
      "komennya": 7677,
      "scatterpragmaticplay": 7678,
      "daho": 7679,
      "perusahan": 7680,
      "reservedcontact": 7681,
      "trader": 7682,
      "wira": 7683,
      "orano": 7684,
      "perluas": 7685,
      "cashless": 7686,
      "videografis": 7687,
      "brisignalbank": 7688,
      "haloo": 7689,
      "halusin": 7690,
      "tasik": 7691,
      "tokoh": 7692,
      "wilds": 7693,
      "lagian": 7694,
      "membuatnya": 7695,
      "ations": 7696,
      "dukungandonasi": 7697,
      "firewisdomtotofire": 7698,
      "microgamingmicrogaming": 7699,
      "penyediaan": 7700,
      "jangenam": 7701,
      "ralqqpool": 7702,
      "ssss": 7703,
      "summary": 7704,
      "sumatera": 7705,
      "sandidaftar": 7706,
      "arcadepokeresports": 7707,
      "cerah": 7708,
      "cerai": 7709,
      "certain": 7710,
      "ceritanya": 7711,
      "binaan": 7712,
      "binatang": 7713,
      "hakim": 7714,
      "miss": 7715,
      "mission": 7716,
      "pundi": 7717,
      "instant": 7718,
      "elearning": 7719,
      "usehat": 7720,
      "liatnya": 7721,
      "advantplaya": 7722,
      "pragmaticplaysweet": 7723,
      "pragmaticplaygates": 7724,
      "pragmaticplayemperor": 7725,
      "loginjoin": 7726,
      "viderimg": 7727,
      "jurkan": 7728,
      "jurusan": 7729,
      "turut": 7730,
      "togeltogel": 7731,
      "seringkali": 7732,
      "habanerone": 7733,
      "cinalogo": 7734,
      "desak": 7735,
      "fastspindra": 7736,
      "gmn": 7737,
      "gmna": 7738,
      "pesanan": 7739,
      "tennis": 7740,
      "powerclusters": 7741,
      "sesuaikan": 7742,
      "hadirr": 7743,
      "facebookcom": 7744,
      "facebookfacebook": 7745,
      "unggulannya": 7746,
      "botol": 7747,
      "bukaemas": 7748,
      "culture": 7749,
      "culinary": 7750,
      "padat": 7751,
      "sukabumi": 7752,
      "ingane": 7753,
      "nexusfortune": 7754,
      "nexusnexus": 7755,
      "whatsappp": 7756,
      "bagianxbet": 7757,
      "golden": 7758,
      "goldmahjong": 7759,
      "habanerohabanero": 7760,
      "purn": 7761,
      "purwas": 7762,
      "purple": 7763,
      "eraesports": 7764,
      "simply": 7765,
      "lewati": 7766,
      "lewoto": 7767,
      "dragonmahjong": 7768,
      "dragonnextspin": 7769,
      "iful": 7770,
      "kotak": 7771,
      "lemon": 7772,
      "lempar": 7773,
      "osari": 7774,
      "oshelp": 7775,
      "overt": 7776,
      "overlay": 7777,
      "questx": 7778,
      "questdragon": 7779,
      "ciptaan": 7780,
      "genz": 7781,
      "genoa": 7782,
      "gistrasi": 7783,
      "tangani": 7784,
      "eloudlycry": 7785,
      "umumnya": 7786,
      "mandirisignalbank": 7787,
      "englishbahasa": 7788,
      "megawati": 7789,
      "pelayanannya": 7790,
      "minimum": 7791,
      "jepey": 7792,
      "jenisnya": 7793,
      "prototy": 7794,
      "bekasi": 7795,
      "blos": 7796,
      "blocked": 7797,
      "donlot": 7798,
      "horor": 7799,
      "horror": 7800,
      "hahahaha": 7801,
      "jateng": 7802,
      "jilijili": 7803,
      "kura": 7804,
      "kurap": 7805,
      "monza": 7806,
      "tangkas": 7807,
      "gameslebih": 7808,
      "gamesslots": 7809,
      "illustration": 7810,
      "melibatkan": 7811,
      "waysmighty": 7812,
      "waysmahwbl": 7813,
      "sportscasinoslotfishing": 7814,
      "gating": 7815,
      "gatethe": 7816,
      "human": 7817,
      "izer": 7818,
      "kuman": 7819,
      "kumham": 7820,
      "tronic": 7821,
      "sosialisasi": 7822,
      "newsroom": 7823,
      "bnisignalbank": 7824,
      "campus": 7825,
      "campur": 7826,
      "cambodia": 7827,
      "kredi": 7828,
      "nihh": 7829,
      "rupanya": 7830,
      "menembus": 7831,
      "menempuh": 7832,
      "itemotionime": 7833,
      "keunggulannya": 7834,
      "youtub": 7835,
      "youtuber": 7836,
      "jumlahnya": 7837,
      "tetapkan": 7838,
      "tetaplah": 7839,
      "axbet": 7840,
      "cahkan": 7841,
      "citysub": 7842,
      "citynolimit": 7843,
      "hell": 7844,
      "jahit": 7845,
      "munchi": 7846,
      "renovasi": 7847,
      "rataratam": 7848,
      "indicator": 7849,
      "asarana": 7850,
      "simulasi": 7851,
      "teriak": 7852,
      "utionevol": 7853,
      "tips": 7854,
      "habisnya": 7855,
      "temenin": 7856,
      "airbender": 7857,
      "byk": 7858,
      "canon": 7859,
      "canakan": 7860,
      "ginian": 7861,
      "kuning": 7862,
      "kuningan": 7863,
      "relasi": 7864,
      "berikutnya": 7865,
      "playstarplaystar": 7866,
      "playstarygra": 7867,
      "sensational": 7868,
      "belanjaan": 7869,
      "kesejahter": 7870,
      "keseimbangan": 7871,
      "pakaian": 7872,
      "mentalfortune": 7873,
      "hugi": 7874,
      "huge": 7875,
      "hujan": 7876,
      "nnn": 7877,
      "rahma": 7878,
      "antara": 7879,
      "antarbank": 7880,
      "antaranya": 7881,
      "sepakat": 7882,
      "sepakbola": 7883,
      "memperbarui": 7884,
      "pools": 7885,
      "speaker": 7886,
      "hacksawcq": 7887,
      "hacksawperbaikan": 7888,
      "society": 7889,
      "socieda": 7890,
      "advantplaymahjong": 7891,
      "advantplaymaya": 7892,
      "fastspinfastspin": 7893,
      "sixsixsixsix": 7894,
      "borussia": 7895,
      "bngt": 7896,
      "bngtt": 7897,
      "capital": 7898,
      "lglg": 7899,
      "tvonen": 7900,
      "treatment": 7901,
      "volley": 7902,
      "volume": 7903,
      "mengadakan": 7904,
      "ayampromosiwelcome": 7905,
      "esis": 7906,
      "portable": 7907,
      "public": 7908,
      "dirjen": 7909,
      "sexlife": 7910,
      "registration": 7911,
      "strategis": 7912,
      "youtubecom": 7913,
      "abisnya": 7914,
      "crease": 7915,
      "denda": 7916,
      "denim": 7917,
      "mlbb": 7918,
      "pleasure": 7919,
      "randown": 7920,
      "ranking": 7921,
      "ranextspin": 7922,
      "berbedabeda": 7923,
      "ingfacebluesmil": 7924,
      "slotsb": 7925,
      "partyingface": 7926,
      "otomatisasi": 7927,
      "integritas": 7928,
      "bpbd": 7929,
      "clean": 7930,
      "demo": 7931,
      "demy": 7932,
      "file": 7933,
      "handle": 7934,
      "visa": 7935,
      "area": 7936,
      "berlibur": 7937,
      "berlimpah": 7938,
      "tawaran": 7939,
      "kawankawan": 7940,
      "winnerslast": 7941,
      "paymentsvg": 7942,
      "kamidi": 7943,
      "finance": 7944,
      "pgsoftmahjong": 7945,
      "iversity": 7946,
      "showdownlucky": 7947,
      "httpsdiscord": 7948,
      "flexi": 7949,
      "polri": 7950,
      "polda": 7951,
      "sarung": 7952,
      "sarapan": 7953,
      "tukerin": 7954,
      "dianjurkan": 7955,
      "sekte": 7956,
      "sekitarmu": 7957,
      "sederet": 7958,
      "rektor": 7959,
      "penyem": 7960,
      "penyampa": 7961,
      "penyesua": 7962,
      "penyimpan": 7963,
      "bosku": 7964,
      "lusive": 7965,
      "series": 7966,
      "seribu": 7967,
      "wkwkwkwkkw": 7968,
      "pelajar": 7969,
      "popularsvg": 7970,
      "nextspinnextspin": 7971,
      "nextspincleopatras": 7972,
      "basketbola": 7973,
      "basketball": 7974,
      "hongkongflagimg": 7975,
      "ditimbulkanpemeliharaan": 7976,
      "hape": 7977,
      "pinggang": 7978,
      "rincess": 7979,
      "rincian": 7980,
      "sinting": 7981,
      "vallecan": 7982,
      "vpnjoker": 7983,
      "vpnloginjoin": 7984,
      "wonosari": 7985,
      "dipung": 7986,
      "dipati": 7987,
      "diperiksa": 7988,
      "mengimba": 7989,
      "rekomendasikan": 7990,
      "dailysocial": 7991,
      "navigation": 7992,
      "navigating": 7993,
      "tokopedia": 7994,
      "statistika": 7995,
      "btc": 7996,
      "bluetoot": 7997,
      "bentang": 7998,
      "dinamis": 7999,
      "kyk": 8000,
      "mikir": 8001,
      "milan": 8002,
      "outsour": 8003,
      "pcsoflagimg": 8004,
      "rompi": 8005,
      "sdgs": 8006,
      "slime": 8007,
      "sulsel": 8008,
      "anjg": 8009,
      "bagaikan": 8010,
      "tigerred": 8011,
      "ready": 8012,
      "lowongan": 8013,
      "ngejaga": 8014,
      "sosok": 8015,
      "qqpooljoker": 8016,
      "dompetmu": 8017,
      "misterius": 8018,
      "caishenemperor": 8019,
      "caishenpragmaticplaygates": 8020,
      "catatan": 8021,
      "mpoplay": 8022,
      "wugy": 8023,
      "infograf": 8024,
      "infografis": 8025,
      "asetmasade": 8026,
      "amerkan": 8027,
      "ahanchaw": 8028,
      "emote": 8029,
      "menuroyal": 8030,
      "mendaftarkan": 8031,
      "ekspresi": 8032,
      "ekschool": 8033,
      "tujuannya": 8034,
      "playtecheventmicrogaming": 8035,
      "codedaily": 8036,
      "evoucher": 8037,
      "evolutionevol": 8038,
      "bullseye": 8039,
      "cryptlucky": 8040,
      "bntr": 8041,
      "bnyak": 8042,
      "pekerja": 8043,
      "satelit": 8044,
      "satunya": 8045,
      "satusatunya": 8046,
      "satusehat": 8047,
      "tutor": 8048,
      "vswaysm": 8049,
      "vswaysmahwbl": 8050,
      "vsslotsb": 8051,
      "anjirrr": 8052,
      "arisme": 8053,
      "disable": 8054,
      "disadari": 8055,
      "siberiapo": 8056,
      "others": 8057,
      "berupaya": 8058,
      "madrid": 8059,
      "kebanjiran": 8060,
      "banditopgsoft": 8061,
      "standard": 8062,
      "staff": 8063,
      "birokrasi": 8064,
      "wkwwk": 8065,
      "chose": 8066,
      "pemberantasan": 8067,
      "indonesian": 8068,
      "indonesiasignalbank": 8069,
      "wealthbonus": 8070,
      "wealthnew": 8071,
      "tinggalkan": 8072,
      "sydneyflagimg": 8073,
      "sydneypools": 8074,
      "preference": 8075,
      "kunjungi": 8076,
      "phoenixmahjong": 8077,
      "phoenixnextspincleopatras": 8078,
      "pentaslotd": 8079,
      "buset": 8080,
      "cuaca": 8081,
      "efek": 8082,
      "festofficial": 8083,
      "jatim": 8084,
      "kaktus": 8085,
      "landasan": 8086,
      "sharp": 8087,
      "wapres": 8088,
      "wings": 8089,
      "energy": 8090,
      "alamak": 8091,
      "alasannya": 8092,
      "akademika": 8093,
      "siswa": 8094,
      "elucky": 8095,
      "menambah": 8096,
      "meningkat": 8097,
      "apakah": 8098,
      "livesa": 8099,
      "perlomba": 8100,
      "permatafooterimg": 8101,
      "jagoan": 8102,
      "memantau": 8103,
      "tagespersons": 8104,
      "spiritual": 8105,
      "mengecek": 8106,
      "troll": 8107,
      "building": 8108,
      "music": 8109,
      "merchku": 8110,
      "goodlife": 8111,
      "menyelamatkan": 8112,
      "belaka": 8113,
      "kompeten": 8114,
      "kompetisi": 8115,
      "totemmaya": 8116,
      "totemadvantplaymahjong": 8117,
      "skillmu": 8118,
      "pharaohpirate": 8119,
      "dasarnya": 8120,
      "points": 8121,
      "ujungnya": 8122,
      "jdbjdb": 8123,
      "industrial": 8124,
      "again": 8125,
      "aceh": 8126,
      "fantastic": 8127,
      "gbsa": 8128,
      "kuliner": 8129,
      "lelee": 8130,
      "miliknya": 8131,
      "milikmu": 8132,
      "sorotan": 8133,
      "sudut": 8134,
      "tleblowing": 8135,
      "ville": 8136,
      "anomaly": 8137,
      "investi": 8138,
      "mendebarkan": 8139,
      "keterampil": 8140,
      "ipbnesian": 8141,
      "hokibangtelegram": 8142,
      "kumpulkan": 8143,
      "clusterspragmatic": 8144,
      "clustersmental": 8145,
      "banditowild": 8146,
      "herculesslot": 8147,
      "central": 8148,
      "cagub": 8149,
      "cagliari": 8150,
      "future": 8151,
      "gcluballbet": 8152,
      "jones": 8153,
      "jonathan": 8154,
      "kilas": 8155,
      "longgar": 8156,
      "mangga": 8157,
      "mekari": 8158,
      "nekat": 8159,
      "nekolucky": 8160,
      "nekopgsoft": 8161,
      "osportsub": 8162,
      "paparnya": 8163,
      "papuana": 8164,
      "ssportbspor": 8165,
      "yggdrasil": 8166,
      "diejek": 8167,
      "berkala": 8168,
      "limbah": 8169,
      "isengiseng": 8170,
      "isportssportbspor": 8171,
      "memasukkan": 8172,
      "studi": 8173,
      "ekspansi": 8174,
      "chaifa": 8175,
      "mengaksesnya": 8176,
      "boongohotyg": 8177,
      "buyspin": 8178,
      "pengembalian": 8179,
      "meresahkan": 8180,
      "iacid": 8181,
      "fisikniah": 8182,
      "konsepnya": 8183,
      "putusnya": 8184,
      "firefirefire": 8185,
      "pesantren": 8186,
      "risikoambil": 8187,
      "prabowogibran": 8188,
      "breaking": 8189,
      "damage": 8190,
      "florida": 8191,
      "fume": 8192,
      "floating": 8193,
      "knp": 8194,
      "kusumo": 8195,
      "kuta": 8196,
      "lcpragmatic": 8197,
      "motionimefestofficial": 8198,
      "pangandaran": 8199,
      "polytron": 8200,
      "rakyat": 8201,
      "remaja": 8202,
      "role": 8203,
      "menaikkan": 8204,
      "menupg": 8205,
      "menupp": 8206,
      "menupoker": 8207,
      "utupan": 8208,
      "timelivepersons": 8209,
      "requestan": 8210,
      "memegang": 8211,
      "memecahkan": 8212,
      "keknya": 8213,
      "keanggotaan": 8214,
      "agriculture": 8215,
      "bossku": 8216,
      "covered": 8217,
      "kadotcom": 8218,
      "casinotog": 8219,
      "casinomg": 8220,
      "casinofishing": 8221,
      "ketiban": 8222,
      "vidiocom": 8223,
      "noob": 8224,
      "kerugian": 8225,
      "pertamina": 8226,
      "hianatan": 8227,
      "exclusive": 8228,
      "komentarnya": 8229,
      "institut": 8230,
      "llllllll": 8231,
      "destinasi": 8232,
      "pagcorpng": 8233,
      "kriminalisasi": 8234,
      "bcasignalbank": 8235,
      "cemeter": 8236,
      "cupu": 8237,
      "content": 8238,
      "continu": 8239,
      "dmn": 8240,
      "dmca": 8241,
      "darii": 8242,
      "gilak": 8243,
      "honorer": 8244,
      "jepii": 8245,
      "kimia": 8246,
      "kitabisa": 8247,
      "mampus": 8248,
      "moral": 8249,
      "mirror": 8250,
      "pisah": 8251,
      "pupuk": 8252,
      "puppet": 8253,
      "raprincess": 8254,
      "tindakan": 8255,
      "tentang": 8256,
      "vania": 8257,
      "widget": 8258,
      "dipascolhoki": 8259,
      "sikomilmu": 8260,
      "menantu": 8261,
      "menanyakan": 8262,
      "berisiko": 8263,
      "peringatan": 8264,
      "peringkat": 8265,
      "resiko": 8266,
      "bility": 8267,
      "cairkan": 8268,
      "manila": 8269,
      "engineering": 8270,
      "processwelcome": 8271,
      "merdekadotcom": 8272,
      "thats": 8273,
      "casinohotsexy": 8274,
      "casinohotdg": 8275,
      "karyawan": 8276,
      "inisiatif": 8277,
      "questadv": 8278,
      "education": 8279,
      "qqdsub": 8280,
      "qqvietqqdsub": 8281,
      "hehee": 8282,
      "hearts": 8283,
      "connect": 8284,
      "connected": 8285,
      "warningdeposit": 8286,
      "adekku": 8287,
      "simpanan": 8288,
      "waspada": 8289,
      "qrplaysqqvietqqdsub": 8290,
      "richesneko": 8291,
      "richesfastspindra": 8292,
      "fleksibel": 8293,
      "fleksibilitas": 8294,
      "kemenkumhamgoid": 8295,
      "httpswwwfacebookcom": 8296,
      "httpswwwyoutubecom": 8297,
      "dvantplayhotcsport": 8298,
      "zeniusnet": 8299,
      "duduk": 8300,
      "frustasi": 8301,
      "fiksi": 8302,
      "gaper": 8303,
      "geser": 8304,
      "gentong": 8305,
      "hunger": 8306,
      "hadapi": 8307,
      "normal": 8308,
      "pipi": 8309,
      "yono": 8310,
      "infinity": 8311,
      "infinite": 8312,
      "menunjang": 8313,
      "menusg": 8314,
      "menuspadegaming": 8315,
      "teregistrasi": 8316,
      "lazmall": 8317,
      "majalah": 8318,
      "maybank": 8319,
      "present": 8320,
      "istrinya": 8321,
      "nyaaaa": 8322,
      "pengabdian": 8323,
      "stabil": 8324,
      "playhomehotgamegates": 8325,
      "chinese": 8326,
      "chinaflagimg": 8327,
      "pemanen": 8328,
      "dewadoamenawarkan": 8329,
      "project": 8330,
      "vivogaming": 8331,
      "implement": 8332,
      "pascabayar": 8333,
      "hosting": 8334,
      "beauty": 8335,
      "beautiful": 8336,
      "grinningfacewithsweat": 8337,
      "antplayaztec": 8338,
      "bayangkan": 8339,
      "streming": 8340,
      "kecamatan": 8341,
      "electronic": 8342,
      "protection": 8343,
      "bonanzale": 8344,
      "korporasi": 8345,
      "blockchain": 8346,
      "indianaevemary": 8347,
      "indikator": 8348,
      "lotterypokerqq": 8349,
      "lotterypokerpromoviprefer": 8350,
      "reksadana": 8351,
      "menurutnya": 8352,
      "menurutku": 8353,
      "menursghabanerone": 8354,
      "vsolympx": 8355,
      "vsolympnin": 8356,
      "timelivem": 8357,
      "timelivesup": 8358,
      "excited": 8359,
      "excitement": 8360,
      "mongolz": 8361,
      "mongolindianaevemary": 8362,
      "nutrisimu": 8363,
      "magnumd": 8364,
      "barcelona": 8365,
      "smgluckytwinsnexus": 8366,
      "smgluckytwinspowerclusters": 8367,
      "httpswwwinstagramcomjivin": 8368,
      "httpswwwinstagramcommotionimefestofficial": 8369,
      "academy": 8370,
      "basic": 8371,
      "follow": 8372,
      "gantungan": 8373,
      "hikmah": 8374,
      "idioshelp": 8375,
      "kbbi": 8376,
      "kuhp": 8377,
      "kentang": 8378,
      "murid": 8379,
      "midday": 8380,
      "mutiara": 8381,
      "nasib": 8382,
      "napoli": 8383,
      "octo": 8384,
      "outer": 8385,
      "plagiarisme": 8386,
      "rungkad": 8387,
      "sarana": 8388,
      "shirt": 8389,
      "slowmo": 8390,
      "wasabi": 8391,
      "yatim": 8392,
      "animasi": 8393,
      "erapilih": 8394,
      "independen": 8395,
      "introvert": 8396,
      "akurat": 8397,
      "ahihihi": 8398,
      "direct": 8399,
      "menimbulkan": 8400,
      "mengacu": 8401,
      "berbuatbaikid": 8402,
      "espaol": 8403,
      "pramonorano": 8404,
      "istanbul": 8405,
      "security": 8406,
      "penalty": 8407,
      "pensiun": 8408,
      "pengamat": 8409,
      "waduhh": 8410,
      "kejuaraan": 8411,
      "kepanikan": 8412,
      "kekalahan": 8413,
      "kebahagiaan": 8414,
      "keinginanmu": 8415,
      "street": 8416,
      "bimbel": 8417,
      "playhomehotgamelucky": 8418,
      "iramai": 8419,
      "menghampiri": 8420,
      "mengungkapkan": 8421,
      "advertorial": 8422,
      "lumayan": 8423,
      "castlevania": 8424,
      "pecaah": 8425,
      "kocaa": 8426,
      "andrea": 8427,
      "imigrasi": 8428,
      "imately": 8429,
      "modus": 8430,
      "melebihi": 8431,
      "wedge": 8432,
      "nyoblos": 8433,
      "kompasid": 8434,
      "soccer": 8435,
      "commitment": 8436,
      "kesukaan": 8437,
      "kesabarannya": 8438,
      "applies": 8439,
      "joyville": 8440,
      "facebluesmiling": 8441,
      "volitenis": 8442,
      "duniawi": 8443,
      "bukamobil": 8444,
      "warisan": 8445,
      "feedback": 8446,
      "dashboard": 8447,
      "riplegold": 8448,
      "tradein": 8449,
      "advantagespersons": 8450,
      "purchase": 8451,
      "antisipasi": 8452,
      "sarangnya": 8453,
      "sinarmas": 8454,
      "sliderimg": 8455,
      "txsdayflagimg": 8456,
      "txsmorningflagimg": 8457,
      "organizer": 8458,
      "zombienya": 8459,
      "merespons": 8460,
      "analisa": 8461,
      "californiaflagimg": 8462,
      "furniture": 8463,
      "beritasatucom": 8464,
      "wavinghandwavinghand": 8465,
      "competitive": 8466,
      "txseveningflagimg": 8467,
      "afif": 8468,
      "azab": 8469,
      "bendera": 8470,
      "bapac": 8471,
      "dftr": 8472,
      "djki": 8473,
      "drop": 8474,
      "dallas": 8475,
      "eudora": 8476,
      "egnas": 8477,
      "ezugi": 8478,
      "fomc": 8479,
      "fisch": 8480,
      "fnop": 8481,
      "fluktuatif": 8482,
      "fenomena": 8483,
      "gombel": 8484,
      "gandakan": 8485,
      "garansi": 8486,
      "gdgd": 8487,
      "jilbab": 8488,
      "jokowi": 8489,
      "kuduga": 8490,
      "kweekschool": 8491,
      "loreal": 8492,
      "lgnsung": 8493,
      "montor": 8494,
      "museum": 8495,
      "mekswin": 8496,
      "mxico": 8497,
      "nuansa": 8498,
      "nataru": 8499,
      "notice": 8500,
      "opportunity": 8501,
      "ocbc": 8502,
      "obsidian": 8503,
      "plugin": 8504,
      "rscm": 8505,
      "release": 8506,
      "sneaker": 8507,
      "smuwa": 8508,
      "sleman": 8509,
      "tunggal": 8510,
      "tulung": 8511,
      "ucapkan": 8512,
      "vstriplegold": 8513,
      "vspquestx": 8514,
      "wireless": 8515,
      "which": 8516,
      "whistleblowing": 8517,
      "xdunk": 8518,
      "xpukulan": 8519,
      "antropologi": 8520,
      "analisis": 8521,
      "erupsi": 8522,
      "erhanakan": 8523,
      "intuitif": 8524,
      "inewsid": 8525,
      "arthur": 8526,
      "athletic": 8527,
      "albertt": 8528,
      "alokasikan": 8529,
      "alodokter": 8530,
      "amsterdam": 8531,
      "aktuaria": 8532,
      "akuntansi": 8533,
      "akhiri": 8534,
      "ditiru": 8535,
      "dimarahi": 8536,
      "diperlukan": 8537,
      "diamond": 8538,
      "different": 8539,
      "menikah": 8540,
      "mentawai": 8541,
      "mencobanya": 8542,
      "menjalankan": 8543,
      "tertipu": 8544,
      "terpadu": 8545,
      "tersiksa": 8546,
      "tersakiti": 8547,
      "apresiasi": 8548,
      "bermaingambling": 8549,
      "berdosa": 8550,
      "bertahuntahun": 8551,
      "beredar": 8552,
      "ethereum": 8553,
      "laundry": 8554,
      "launching": 8555,
      "madras": 8556,
      "majelis": 8557,
      "ingfaceloudlycry": 8558,
      "usdownloaddownloadandro": 8559,
      "kanopi": 8560,
      "licensed": 8561,
      "perilaku": 8562,
      "perselisihan": 8563,
      "perjuangan": 8564,
      "perasaannya": 8565,
      "peristiwa": 8566,
      "prolegnas": 8567,
      "pricing": 8568,
      "defeat": 8569,
      "degdegan": 8570,
      "bawaslu": 8571,
      "sepuluh": 8572,
      "second": 8573,
      "tiongkok": 8574,
      "oktober": 8575,
      "pentacc": 8576,
      "penjelasan": 8577,
      "memprioritaskan": 8578,
      "memfasilitasi": 8579,
      "membatalkannya": 8580,
      "kebebasan": 8581,
      "ketersediaan": 8582,
      "kehamilan": 8583,
      "kejenuhan": 8584,
      "kepunahan": 8585,
      "kekinian": 8586,
      "kebersamaan": 8587,
      "keadaan": 8588,
      "keahlian": 8589,
      "kehancuran": 8590,
      "ilmunya": 8591,
      "ributor": 8592,
      "lotsportscasinofishing": 8593,
      "umroh": 8594,
      "gameqqthaiqrplaysqqvietqqdsub": 8595,
      "legitimately": 8596,
      "indosat": 8597,
      "gigitan": 8598,
      "tubuniah": 8599,
      "sloteventjokersub": 8600,
      "slotnetentsub": 8601,
      "slotawcdc": 8602,
      "playhomehotgames": 8603,
      "upgrade": 8604,
      "selfie": 8605,
      "selundupkan": 8606,
      "speechless": 8607,
      "menghabiskan": 8608,
      "menghubungkan": 8609,
      "mengeluarkan": 8610,
      "menguasai": 8611,
      "double": 8612,
      "kalkulator": 8613,
      "mantep": 8614,
      "mancanegara": 8615,
      "mecahin": 8616,
      "pengalihan": 8617,
      "servicemeter": 8618,
      "people": 8619,
      "mulainya": 8620,
      "merauke": 8621,
      "thumbnail": 8622,
      "throughout": 8623,
      "hotcategoryiconlive": 8624,
      "pelihara": 8625,
      "pelopor": 8626,
      "pusdatin": 8627,
      "houston": 8628,
      "beijing": 8629,
      "menyederhanakan": 8630,
      "gamingskywinddodo": 8631,
      "komparasi": 8632,
      "wayspgsoftlucky": 8633,
      "southcaromid": 8634,
      "kerbautua": 8635,
      "menanggulangi": 8636,
      "plastik": 8637,
      "plankton": 8638,
      "cominvitemotionime": 8639,
      "suarasuara": 8640,
      "sulawesi": 8641,
      "pabrik": 8642,
      "geofisika": 8643,
      "harbolnas": 8644,
      "ipbuniversity": 8645,
      "michael": 8646,
      "timsportwsportosportsub": 8647,
      "imadudin": 8648,
      "imageslotsportscasinofishing": 8649,
      "accessing": 8650,
      "konsultasi": 8651,
      "tottenham": 8652,
      "waktunya": 8653,
      "waktumin": 8654,
      "spineventboongohotyg": 8655,
      "affiliate": 8656,
      "fisheventfs": 8657,
      "fishhotqqkenonumber": 8658,
      "menujilihacksawcq": 8659,
      "menufastspinplaytecheventmicrogaming": 8660,
      "menucgplaystarygra": 8661,
      "bulutangkis": 8662,
      "bulaksumur": 8663,
      "software": 8664,
      "olahragacrash": 8665,
      "excell": 8666,
      "exercising": 8667,
      "sgnexuskoigate": 8668,
      "sghothotnexus": 8669,
      "fortunenextspinprincess": 8670,
      "jumpscare": 8671,
      "philippine": 8672,
      "scatterpragmaticplaystarlight": 8673,
      "ralqqpooleventpragmatic": 8674,
      "arcadepokeresportssabung": 8675,
      "advantplayadvantplay": 8676,
      "whatsapppng": 8677,
      "purwasari": 8678,
      "purplecry": 8679,
      "lewotobi": 8680,
      "dragonnextspinmahjong": 8681,
      "horrornya": 8682,
      "gamesslotslive": 8683,
      "sportscasinoslotfishinglotterypokerqq": 8684,
      "munchies": 8685,
      "rataratamins": 8686,
      "kesejahteraan": 8687,
      "sociedad": 8688,
      "tvonenews": 8689,
      "volleyball": 8690,
      "ranextspinfortune": 8691,
      "httpsdiscordcominvitemotionime": 8692,
      "penyampaian": 8693,
      "penyesuaian": 8694,
      "penyimpanan": 8695,
      "vallecano": 8696,
      "mengimbau": 8697,
      "bluetooth": 8698,
      "infografik": 8699,
      "asetmasadepan": 8700,
      "evolutionevolution": 8701,
      "vswaysmherc": 8702,
      "vswaysmahwblck": 8703,
      "siberiapools": 8704,
      "banditopgsoftneko": 8705,
      "perlombaan": 8706,
      "permatafooterimgsportscasinoslotfishinglotterypokerqq": 8707,
      "investigasi": 8708,
      "keterampilan": 8709,
      "nekopgsoftwild": 8710,
      "isportssportbsportimsportwsportosportsub": 8711,
      "casinotogel": 8712,
      "continuing": 8713,
      "questadvantplayaztec": 8714,
      "richesfastspindragon": 8715,
      "dvantplayhotcsportisportssportbsportimsportwsportosportsub": 8716,
      "menuspadegamingsub": 8717,
      "lotterypokerpromovipreferralqqpooleventpragmatic": 8718,
      "menursghabaneronext": 8719,
      "timelivesupported": 8720,
      "mongolindianaevemarylandeve": 8721,
      "httpswwwinstagramcomjivinco": 8722,
      "volitenisbulutangkis": 8723,
      "usdownloaddownloadandroidioshelp": 8724,
      "servicemetersvg": 8725,
      "southcaromidmongolindianaevemarylandeve": 8726,
      "imageslotsportscasinofishinglotterypokerpromovipreferralqqpooleventpragmatic": 8727,
      "spineventboongohotyggrelax": 8728,
      "menufastspinplaytecheventmicrogamingnolimit": 8729,
      "menucgplaystarygradvantplayhotcsportisportssportbsportimsportwsportosportsub": 8730,
      "httpsdiscordcominvitemotionimefestival": 8731,
      "aik": 8732,
      "aap": 8733,
      "aes": 8734,
      "aus": 8735,
      "agam": 8736,
      "awk": 8737,
      "aju": 8738,
      "awkwk": 8739,
      "avi": 8740,
      "aqu": 8741,
      "afer": 8742,
      "afit": 8743,
      "aai": 8744,
      "abat": 8745,
      "awkwkwk": 8746,
      "abro": 8747,
      "abangg": 8748,
      "abadi": 8749,
      "auran": 8750,
      "achi": 8751,
      "abad": 8752,
      "abaikan": 8753,
      "auku": 8754,
      "ajukan": 8755,
      "abrak": 8756,
      "ability": 8757,
      "bj": 8758,
      "bk": 8759,
      "bv": 8760,
      "bban": 8761,
      "bup": 8762,
      "bof": 8763,
      "bbo": 8764,
      "bha": 8765,
      "bsia": 8766,
      "bate": 8767,
      "bont": 8768,
      "bunt": 8769,
      "bgr": 8770,
      "bny": 8771,
      "buhan": 8772,
      "baku": 8773,
      "blan": 8774,
      "bbil": 8775,
      "bala": 8776,
      "buntung": 8777,
      "bgram": 8778,
      "bner": 8779,
      "bph": 8780,
      "bina": 8781,
      "brip": 8782,
      "bbri": 8783,
      "byar": 8784,
      "bkm": 8785,
      "bdikan": 8786,
      "bbc": 8787,
      "cd": 8788,
      "cn": 8789,
      "cp": 8790,
      "cx": 8791,
      "cun": 8792,
      "ces": 8793,
      "cma": 8794,
      "casi": 8795,
      "cum": 8796,
      "cra": 8797,
      "cakan": 8798,
      "cta": 8799,
      "cub": 8800,
      "cck": 8801,
      "cof": 8802,
      "cpe": 8803,
      "cili": 8804,
      "cih": 8805,
      "cant": 8806,
      "catan": 8807,
      "carkan": 8808,
      "cita": 8809,
      "cbook": 8810,
      "cream": 8811,
      "catur": 8812,
      "cci": 8813,
      "coff": 8814,
      "canc": 8815,
      "canda": 8816,
      "cchi": 8817,
      "cofficial": 8818,
      "ccor": 8819,
      "cfashion": 8820,
      "cperlengkapan": 8821,
      "cdn": 8822,
      "cjika": 8823,
      "cikkk": 8824,
      "db": 8825,
      "dh": 8826,
      "dl": 8827,
      "dw": 8828,
      "dot": 8829,
      "dur": 8830,
      "dja": 8831,
      "dnya": 8832,
      "dort": 8833,
      "dlu": 8834,
      "done": 8835,
      "dpat": 8836,
      "dara": 8837,
      "dapa": 8838,
      "dhan": 8839,
      "dwin": 8840,
      "dungan": 8841,
      "duhan": 8842,
      "dhar": 8843,
      "drp": 8844,
      "danya": 8845,
      "dspin": 8846,
      "dpet": 8847,
      "dnama": 8848,
      "dwi": 8849,
      "dele": 8850,
      "daki": 8851,
      "dtang": 8852,
      "dflagimg": 8853,
      "dchai": 8854,
      "djitu": 8855,
      "duri": 8856,
      "dmagnum": 8857,
      "dlm": 8858,
      "dotcom": 8859,
      "dandan": 8860,
      "ddos": 8861,
      "ei": 8862,
      "eq": 8863,
      "eor": 8864,
      "ega": 8865,
      "ede": 8866,
      "eve": 8867,
      "eco": 8868,
      "esia": 8869,
      "ego": 8870,
      "epot": 8871,
      "egg": 8872,
      "eform": 8873,
      "epl": 8874,
      "ege": 8875,
      "eess": 8876,
      "econ": 8877,
      "eamanan": 8878,
      "eey": 8879,
      "ehh": 8880,
      "eau": 8881,
      "egar": 8882,
      "ecash": 8883,
      "eos": 8884,
      "ebek": 8885,
      "ection": 8886,
      "edisi": 8887,
      "eff": 8888,
      "ebt": 8889,
      "eboard": 8890,
      "ehhh": 8891,
      "ecurrency": 8892,
      "eers": 8893,
      "epop": 8894,
      "einfinity": 8895,
      "fam": 8896,
      "fus": 8897,
      "fti": 8898,
      "fst": 8899,
      "fari": 8900,
      "fati": 8901,
      "fad": 8902,
      "fro": 8903,
      "ffa": 8904,
      "fic": 8905,
      "flik": 8906,
      "fund": 8907,
      "fpt": 8908,
      "falan": 8909,
      "fdr": 8910,
      "fram": 8911,
      "flight": 8912,
      "flagi": 8913,
      "fasy": 8914,
      "fred": 8915,
      "fotor": 8916,
      "fkm": 8917,
      "fender": 8918,
      "fsv": 8919,
      "fiphone": 8920,
      "fuji": 8921,
      "funde": 8922,
      "frame": 8923,
      "fps": 8924,
      "fujian": 8925,
      "fotog": 8926,
      "fhm": 8927,
      "fluke": 8928,
      "gt": 8929,
      "gmen": 8930,
      "gpr": 8931,
      "gja": 8932,
      "gbi": 8933,
      "guh": 8934,
      "gud": 8935,
      "gta": 8936,
      "gasa": 8937,
      "gero": 8938,
      "gwe": 8939,
      "gall": 8940,
      "ggaming": 8941,
      "gsung": 8942,
      "gana": 8943,
      "gess": 8944,
      "ganya": 8945,
      "gore": 8946,
      "ginya": 8947,
      "gher": 8948,
      "gsk": 8949,
      "goti": 8950,
      "gator": 8951,
      "ghing": 8952,
      "grip": 8953,
      "greal": 8954,
      "gcash": 8955,
      "gure": 8956,
      "gorit": 8957,
      "gbp": 8958,
      "gapo": 8959,
      "gkedokteran": 8960,
      "grid": 8961,
      "gmentasi": 8962,
      "gmail": 8963,
      "glad": 8964,
      "hc": 8965,
      "hd": 8966,
      "hl": 8967,
      "has": 8968,
      "hus": 8969,
      "hakan": 8970,
      "hlo": 8971,
      "hta": 8972,
      "hag": 8973,
      "halu": 8974,
      "hate": 8975,
      "hic": 8976,
      "hall": 8977,
      "hmin": 8978,
      "hpl": 8979,
      "hala": 8980,
      "hast": 8981,
      "hki": 8982,
      "huang": 8983,
      "holy": 8984,
      "hidr": 8985,
      "hina": 8986,
      "hash": 8987,
      "hika": 8988,
      "hulu": 8989,
      "hlam": 8990,
      "hluk": 8991,
      "hbd": 8992,
      "hmadi": 8993,
      "hunter": 8994,
      "huhu": 8995,
      "hmmm": 8996,
      "hdd": 8997,
      "hkeperawatan": 8998,
      "heksa": 8999,
      "hundred": 9000,
      "ie": 9001,
      "iv": 9002,
      "iin": 9003,
      "iat": 9004,
      "iber": 9005,
      "ila": 9006,
      "iwa": 9007,
      "iri": 9008,
      "ira": 9009,
      "ipo": 9010,
      "ibar": 9011,
      "ive": 9012,
      "iman": 9013,
      "ialah": 9014,
      "ihat": 9015,
      "iht": 9016,
      "ibur": 9017,
      "ijam": 9018,
      "iqu": 9019,
      "ipa": 9020,
      "ilai": 9021,
      "iiliki": 9022,
      "isih": 9023,
      "iwal": 9024,
      "iemas": 9025,
      "iapkan": 9026,
      "igh": 9027,
      "iven": 9028,
      "ideal": 9029,
      "ibox": 9030,
      "ibc": 9031,
      "imani": 9032,
      "iamart": 9033,
      "ieu": 9034,
      "iprice": 9035,
      "iyen": 9036,
      "iikkk": 9037,
      "ifier": 9038,
      "ibrah": 9039,
      "jg": 9040,
      "jm": 9041,
      "js": 9042,
      "jy": 9043,
      "jin": 9044,
      "jas": 9045,
      "jem": 9046,
      "jap": 9047,
      "jga": 9048,
      "jok": 9049,
      "jul": 9050,
      "juk": 9051,
      "jub": 9052,
      "jne": 9053,
      "jalah": 9054,
      "jent": 9055,
      "jaran": 9056,
      "janan": 9057,
      "jant": 9058,
      "jnah": 9059,
      "just": 9060,
      "joran": 9061,
      "jingan": 9062,
      "jember": 9063,
      "jasama": 9064,
      "jhon": 9065,
      "jungg": 9066,
      "jandaslot": 9067,
      "kli": 9068,
      "kga": 9069,
      "kit": 9070,
      "kti": 9071,
      "kle": 9072,
      "kra": 9073,
      "kup": 9074,
      "kub": 9075,
      "kaman": 9076,
      "ktar": 9077,
      "kpe": 9078,
      "kara": 9079,
      "kasa": 9080,
      "kno": 9081,
      "kho": 9082,
      "klau": 9083,
      "kitas": 9084,
      "kki": 9085,
      "kni": 9086,
      "kkocak": 9087,
      "know": 9088,
      "kjo": 9089,
      "kamanan": 9090,
      "kham": 9091,
      "kris": 9092,
      "koran": 9093,
      "kkebijakan": 9094,
      "kulu": 9095,
      "klem": 9096,
      "kill": 9097,
      "kpn": 9098,
      "krisi": 9099,
      "kfc": 9100,
      "klast": 9101,
      "kbli": 9102,
      "ksabar": 9103,
      "klir": 9104,
      "kwkwkwkw": 9105,
      "kuku": 9106,
      "kpk": 9107,
      "khianat": 9108,
      "kpd": 9109,
      "ksitas": 9110,
      "ktawa": 9111,
      "khianatan": 9112,
      "kcp": 9113,
      "lak": 9114,
      "lom": 9115,
      "lasi": 9116,
      "lbi": 9117,
      "lup": 9118,
      "llo": 9119,
      "lce": 9120,
      "lbo": 9121,
      "leng": 9122,
      "lne": 9123,
      "lmu": 9124,
      "lgac": 9125,
      "lbih": 9126,
      "lest": 9127,
      "loker": 9128,
      "loki": 9129,
      "laku": 9130,
      "luka": 9131,
      "lamat": 9132,
      "lomb": 9133,
      "lupakan": 9134,
      "lwkwkwk": 9135,
[...]
